<pad>	0
<unk>	0
<s>	0
</s>	0
ar	-0
an	-1
le	-2
in	-3
de	-4
ın	-5
▁b	-6
▁k	-7
▁y	-8
er	-9
da	-10
▁s	-11
al	-12
ir	-13
▁g	-14
en	-15
▁i	-16
ak	-17
di	-18
ler	-19
li	-20
lar	-21
la	-22
ma	-23
▁o	-24
et	-25
ek	-26
▁v	-27
▁t	-28
un	-29
dı	-30
at	-31
ay	-32
▁B	-33
or	-34
es	-35
ur	-36
▁h	-37
on	-38
iy	-39
▁A	-40
as	-41
il	-42
aş	-43
ıl	-44
ür	-45
▁de	-46
▁ve	-47
ün	-48
▁m	-49
▁ç	-50
▁d	-51
ık	-52
el	-53
▁K	-54
ul	-55
▁T	-56
▁bir	-57
im	-58
ap	-59
ır	-60
▁a	-61
em	-62
▁ol	-63
st	-64
▁M	-65
iz	-66
▁ö	-67
▁S	-68
▁e	-69
inde	-70
ki	-71
dan	-72
ti	-73
ında	-74
am	-75
ey	-76
▁p	-77
ış	-78
az	-79
ör	-80
▁da	-81
ını	-82
len	-83
▁İ	-84
ğı	-85
▁"	-86
du	-87
▁D	-88
yor	-89
ce	-90
▁E	-91
üz	-92
ini	-93
den	-94
▁ar	-95
..	-96
▁al	-97
ya	-98
um	-99
ine	-100
tı	-101
iş	-102
▁H	-103
▁yap	-104
lı	-105
▁Y	-106
▁1	-107
▁G	-108
sı	-109
ab	-110
▁ş	-111
it	-112
lan	-113
ah	-114
leri	-115
esi	-116
ına	-117
ları	-118
▁iç	-119
▁2	-120
ok	-121
ük	-122
oğ	-123
▁ge	-124
ağ	-125
lik	-126
me	-127
ol	-128
anı	-129
iye	-130
inin	-131
ik	-132
▁n	-133
▁f	-134
uş	-135
ği	-136
▁gör	-137
ev	-138
is	-139
▁P	-140
▁bu	-141
ürk	-142
alar	-143
cak	-144
▁C	-145
ön	-146
▁baş	-147
ül	-148
af	-149
ut	-150
uz	-151
ının	-152
▁kar	-153
ım	-154
lu	-155
av	-156
▁et	-157
ye	-158
te	-159
▁O	-160
▁ver	-161
ından	-162
▁son	-163
▁için	-164
▁ile	-165
▁Türk	-166
▁di	-167
▁ön	-168
ci	-169
▁il	-170
ta	-171
▁oldu	-172
▁kon	-173
öy	-174
üm	-175
dır	-176
ca	-177
ız	-178
üş	-179
uk	-180
yon	-181
▁r	-182
se	-183
▁aç	-184
ili	-185
▁an	-186
ad	-187
▁z	-188
▁bul	-189
lay	-190
▁Baş	-191
ması	-192
▁F	-193
cı	-194
om	-195
▁u	-196
▁edi	-197
▁ay	-198
ra	-199
▁Ç	-200
▁yıl	-201
cek	-202
unu	-203
dir	-204
▁çık	-205
ası	-206
ez	-207
tan	-208
ile	-209
▁ger	-210
us	-211
öz	-212
▁yer	-213
mak	-214
lık	-215
▁bel	-216
...	-217
▁sür	-218
laş	-219
op	-220
lerin	-221
▁3	-222
▁iş	-223
▁Ö	-224
▁Türkiye	-225
▁tar	-226
▁Ş	-227
si	-228
nin	-229
üy	-230
ip	-231
▁geç	-232
▁değ	-233
dığı	-234
öyle	-235
ılan	-236
▁in	-237
▁olduğ	-238
mas	-239
ların	-240
▁yaş	-241
ha	-242
eye	-243
üt	-244
▁yar	-245
yla	-246
ken	-247
larak	-248
tir	-249
eh	-250
▁gün	-251
▁ist	-252
ildi	-253
▁mil	-254
let	-255
ıyor	-256
ede	-257
▁20	-258
▁üz	-259
▁kur	-260
▁'	-261
ara	-262
▁kal	-263
▁belir	-264
▁en	-265
▁Er	-266
iyle	-267
▁or	-268
▁bulun	-269
man	-270
iyor	-271
eni	-272
lü	-273
▁üzer	-274
ıs	-275
▁(	-276
▁ne	-277
ade	-278
▁çal	-279
▁N	-280
▁bin	-281
aya	-282
uşt	-283
▁An	-284
mek	-285
▁olarak	-286
stan	-287
tır	-288
ib	-289
▁Bu	-290
▁kad	-291
ğini	-292
▁kay	-293
ama	-294
ro	-295
▁R	-296
ada	-297
▁sor	-298
alı	-299
re	-300
dür	-301
ıldı	-302
iyet	-303
▁çalış	-304
inden	-305
▁bil	-306
▁yüz	-307
▁olan	-308
mış	-309
asında	-310
eş	-311
▁yak	-312
akan	-313
aç	-314
▁ek	-315
▁5	-316
▁c	-317
▁kiş	-318
miş	-319
▁gel	-320
kanı	-321
▁4	-322
▁V	-323
arı	-324
lama	-325
▁ma	-326
▁ise	-327
ru	-328
der	-329
▁açık	-330
▁çok	-331
leş	-332
▁dev	-333
▁dedi	-334
bul	-335
lerini	-336
▁etti	-337
ele	-338
▁yön	-339
erk	-340
eç	-341
ğr	-342
▁var	-343
ğını	-344
larını	-345
oli	-346
kan	-347
nın	-348
endi	-349
arak	-350
▁yan	-351
met	-352
öl	-353
ılı	-354
unda	-355
dü	-356
eri	-357
▁kap	-358
lere	-359
malar	-360
▁top	-361
00	-362
cu	-363
ibi	-364
▁do	-365
stanbul	-366
▁daha	-367
eli	-368
üyük	-369
lem	-370
ih	-371
▁söyle	-372
aat	-373
▁dön	-374
esinde	-375
▁sonra	-376
▁ü	-377
ist	-378
▁gö	-379
ladı	-380
diği	-381
ne	-382
▁dur	-383
▁İstanbul	-384
▁düş	-385
sa	-386
imiz	-387
mesi	-388
▁at	-389
erör	-390
▁kat	-391
ten	-392
▁karş	-393
▁göre	-394
▁gü	-395
▁taraf	-396
▁uy	-397
▁gir	-398
alan	-399
lerinin	-400
unun	-401
▁alın	-402
gi	-403
ark	-404
▁yüzde	-405
oy	-406
lara	-407
enel	-408
doğ	-409
maya	-410
▁kul	-411
▁sağ	-412
os	-413
▁ev	-414
liş	-415
oğlu	-416
▁Mü	-417
erek	-418
▁kadar	-419
lığı	-420
dar	-421
▁U	-422
tığı	-423
gili	-424
eti	-425
eb	-426
▁kişi	-427
lat	-428
ayı	-429
▁l	-430
▁edil	-431
lah	-432
asyon	-433
▁Ü	-434
anda	-435
acak	-436
dım	-437
hur	-438
▁6	-439
ğu	-440
▁Ar	-441
▁hak	-442
umhur	-443
AR	-444
rg	-445
▁ot	-446
ank	-447
yan	-448
▁yeni	-449
▁poli	-450
▁kullan	-451
▁tut	-452
lacak	-453
▁gibi	-454
uştur	-455
▁mü	-456
men	-457
lerine	-458
▁gerek	-459
▁öğr	-460
çek	-461
etim	-462
deki	-463
▁ül	-464
▁201	-465
▁düz	-466
▁yol	-467
una	-468
▁su	-469
isi	-470
▁ak	-471
▁göz	-472
yi	-473
▁hay	-474
▁Al	-475
▁dün	-476
▁olduğu	-477
▁tek	-478
▁if	-479
▁tarafından	-480
▁neden	-481
doğan	-482
kin	-483
▁as	-484
ölg	-485
yı	-486
▁Cumhur	-487
▁pro	-488
▁par	-489
▁öz	-490
baş	-491
▁alt	-492
etir	-493
üs	-494
aman	-495
ale	-496
▁büyük	-497
▁diye	-498
▁Başkanı	-499
ac	-500
▁Öz	-501
ers	-502
▁Bir	-503
▁getir	-504
ot	-505
▁ce	-506
if	-507
ddi	-508
▁L	-509
mız	-510
lerinde	-511
▁sır	-512
lerde	-513
▁saat	-514
▁öl	-515
▁hal	-516
▁ort	-517
azı	-518
larının	-519
▁terör	-520
▁olduğunu	-521
▁kendi	-522
▁7	-523
▁milyon	-524
▁önce	-525
▁ilgili	-526
▁Erdoğan	-527
atır	-528
▁Kur	-529
▁çek	-530
ındaki	-531
▁sah	-532
▁ülk	-533
mes	-534
ob	-535
ven	-536
▁ilk	-537
iyas	-538
erkez	-539
ğü	-540
oc	-541
▁ifade	-542
tr	-543
san	-544
▁Z	-545
tık	-546
▁olma	-547
dik	-548
▁yapılan	-549
per	-550
elik	-551
▁her	-552
dından	-553
ER	-554
▁doğ	-555
▁lir	-556
▁belirt	-557
uy	-558
▁te	-559
."	-560
rgüt	-561
▁olay	-562
▁Genel	-563
▁iki	-564
▁sev	-565
lam	-566
be	-567
▁gelen	-568
iç	-569
▁Par	-570
dık	-571
▁on	-572
▁Ak	-573
ulu	-574
▁ih	-575
daki	-576
▁değil	-577
cağı	-578
▁ardından	-579
▁düzen	-580
iv	-581
▁bulundu	-582
ete	-583
▁Ay	-584
HP	-585
AN	-586
üks	-587
ilen	-588
▁arasında	-589
▁gerçek	-590
atı	-591
▁has	-592
liği	-593
ilir	-594
sız	-595
▁söyledi	-596
▁Mah	-597
▁ama	-598
▁san	-599
art	-600
▁karşı	-601
ünü	-602
tü	-603
▁Müdür	-604
ram	-605
▁8	-606
▁ilç	-607
gün	-608
▁uz	-609
nde	-610
▁Başb	-611
▁ür	-612
leştir	-613
▁sal	-614
ıp	-615
▁es	-616
rup	-617
▁görev	-618
▁seç	-619
han	-620
aber	-621
alık	-622
▁bek	-623
ET	-624
liyor	-625
ans	-626
meye	-627
yen	-628
▁göst	-629
lendir	-630
▁alan	-631
▁öğren	-632
▁devam	-633
na	-634
▁kaz	-635
bir	-636
▁eden	-637
▁polis	-638
▁el	-639
▁karar	-640
▁yaz	-641
dış	-642
▁10	-643
ter	-644
▁söz	-645
kem	-646
dığını	-647
larına	-648
gu	-649
perasyon	-650
▁bölg	-651
ec	-652
ecek	-653
▁dav	-654
ka	-655
▁örgüt	-656
▁tak	-657
uştu	-658
aret	-659
ece	-660
edi	-661
▁eş	-662
çi	-663
larda	-664
▁oy	-665
eyi	-666
▁üzerine	-667
raf	-668
üp	-669
▁gi	-670
▁ad	-671
▁sonu	-672
▁biz	-673
▁bağ	-674
▁kam	-675
nun	-676
ünde	-677
uh	-678
▁sat	-679
▁İl	-680
tar	-681
▁önem	-682
▁yok	-683
leme	-684
▁geldi	-685
lek	-686
▁sav	-687
enin	-688
ocuk	-689
▁ekip	-690
▁har	-691
▁AB	-692
▁Başbakan	-693
nı	-694
det	-695
uyor	-696
ğer	-697
▁tes	-698
▁Av	-699
▁bulunan	-700
oz	-701
usu	-702
▁göster	-703
▁durum	-704
ran	-705
▁ser	-706
andaş	-707
▁şek	-708
atandaş	-709
▁den	-710
▁ada	-711
▁zaman	-712
alt	-713
▁hayat	-714
irk	-715
▁dönem	-716
▁operasyon	-717
mir	-718
▁özel	-719
ali	-720
▁değer	-721
siz	-722
tik	-723
▁İn	-724
ılık	-725
▁iddi	-726
▁9	-727
▁yet	-728
▁içinde	-729
▁I	-730
yar	-731
liğ	-732
rı	-733
maz	-734
▁gen	-735
▁birlik	-736
▁iliş	-737
▁Parti	-738
▁güven	-739
oş	-740
▁görüş	-741
▁15	-742
bet	-743
layan	-744
din	-745
▁is	-746
dur	-747
▁çıkar	-748
▁kes	-749
İN	-750
▁si	-751
ep	-752
▁em	-753
▁verdi	-754
▁ok	-755
cü	-756
sun	-757
▁bak	-758
▁hem	-759
▁li	-760
▁Bakan	-761
▁değiş	-762
KK	-763
▁say	-764
ef	-765
▁kaç	-766
lenen	-767
▁19	-768
▁saldır	-769
çe	-770
tür	-771
ağı	-772
▁iz	-773
▁lira	-774
▁ağ	-775
olu	-776
▁taş	-777
▁CHP	-778
rak	-779
▁haz	-780
▁edildi	-781
▁Yar	-782
ehir	-783
▁dış	-784
▁Has	-785
ülen	-786
▁ben	-787
▁Bak	-788
▁vatandaş	-789
ekt	-790
▁hakk	-791
üyor	-792
bar	-793
▁mah	-794
uv	-795
▁kim	-796
▁Cumhurbaş	-797
üne	-798
larında	-799
▁milyar	-800
▁ülke	-801
▁ki	-802
onom	-803
▁yür	-804
▁ask	-805
▁yaptığı	-806
sam	-807
▁mes	-808
▁suç	-809
▁önemli	-810
▁tarih	-811
▁ola	-812
▁im	-813
▁Em	-814
eledi	-815
▁gaz	-816
▁yatır	-817
kara	-818
▁etki	-819
tış	-820
▁dest	-821
▁cez	-822
▁çocuk	-823
▁İş	-824
anın	-825
lerden	-826
▁bas	-827
▁Kar	-828
▁çıktı	-829
▁birlikte	-830
niyet	-831
▁ulaş	-832
**	-833
▁yapı	-834
ed	-835
▁hazır	-836
▁hav	-837
▁konuş	-838
▁geçir	-839
▁PKK	-840
ğit	-841
larla	-842
▁İs	-843
dana	-844
▁tutuk	-845
lerle	-846
▁tem	-847
ulan	-848
anlı	-849
▁ediyor	-850
▁yüks	-851
up	-852
▁nedeniyle	-853
lim	-854
ic	-855
hale	-856
eyen	-857
▁Ankara	-858
▁git	-859
▁fa	-860
gı	-861
▁şirk	-862
ilecek	-863
lanan	-864
ub	-865
▁Yıl	-866
▁kor	-867
imi	-868
▁soruştur	-869
landı	-870
▁insan	-871
lardan	-872
esine	-873
▁der	-874
▁haf	-875
▁az	-876
▁konuştu	-877
▁tah	-878
▁siyas	-879
▁AK	-880
▁vur	-881
▁aş	-882
lüğü	-883
▁Başkan	-884
▁merkez	-885
▁duy	-886
▁yapan	-887
▁açıklama	-888
lendi	-889
▁proj	-890
▁kaldır	-891
▁kö	-892
IN	-893
▁yay	-894
masına	-895
lerinden	-896
masını	-897
▁ede	-898
▁kapsam	-899
iyat	-900
▁bır	-901
▁dik	-902
▁Kon	-903
▁yapıl	-904
ji	-905
▁J	-906
▁200	-907
▁Mil	-908
▁ark	-909
çı	-910
▁kız	-911
▁üzere	-912
▁dolar	-913
nda	-914
ağını	-915
EN	-916
▁haber	-917
▁fark	-918
vek	-919
tal	-920
sin	-921
▁ABD	-922
altına	-923
▁-	-924
kat	-925
AK	-926
ani	-927
mi	-928
▁edilen	-929
ize	-930
liy	-931
▁gön	-932
▁araç	-933
''	-934
▁dar	-935
▁bildir	-936
indeki	-937
▁yaptı	-938
pr	-939
▁Cumhurbaşkanı	-940
▁zor	-941
▁bırak	-942
▁yatırım	-943
etin	-944
▁olacak	-945
▁yakın	-946
istem	-947
▁Or	-948
ivers	-949
▁tüm	-950
▁bile	-951
▁yaklaş	-952
iversit	-953
▁ken	-954
alle	-955
▁olmak	-956
ledi	-957
▁başladı	-958
aları	-959
eğ	-960
▁aynı	-961
lığ	-962
▁yaşan	-963
▁12	-964
▁kab	-965
üküm	-966
▁Sur	-967
▁süre	-968
▁Dev	-969
▁uç	-970
ektör	-971
ETÖ	-972
kü	-973
▁geliş	-974
▁güç	-975
▁ko	-976
lantı	-977
▁hiç	-978
usunda	-979
▁As	-980
AL	-981
▁mey	-982
urt	-983
▁Kom	-984
▁bugün	-985
yal	-986
est	-987
ğitim	-988
▁Meh	-989
ri	-990
▁tama	-991
▁giriş	-992
üph	-993
▁yas	-994
▁konu	-995
▁şey	-996
▁Bakanı	-997
▁gözaltına	-998
▁kan	-999
▁En	-1000
ilde	-1001
ünün	-1002
▁tele	-1003
vet	-1004
▁aile	-1005
▁yerine	-1006
olo	-1007
min	-1008
İL	-1009
▁ortaya	-1010
0'	-1011
▁destek	-1012
▁bazı	-1013
▁Avrup	-1014
maları	-1015
▁çev	-1016
▁Ün	-1017
ret	-1018
▁dikkat	-1019
▁yönelik	-1020
okr	-1021
▁seçim	-1022
▁Cumhuriyet	-1023
▁kıs	-1024
▁ekonom	-1025
▁Müdürlüğü	-1026
▁Mehmet	-1027
edef	-1028
nak	-1029
▁sayı	-1030
üldü	-1031
▁geçen	-1032
▁kadın	-1033
▁iyi	-1034
▁yaralan	-1035
fa	-1036
ök	-1037
▁yağ	-1038
azla	-1039
eki	-1040
mıştı	-1041
iliyor	-1042
ge	-1043
▁silah	-1044
mem	-1045
▁bilgi	-1046
▁yaşındaki	-1047
likle	-1048
adaş	-1049
▁11	-1050
▁Dem	-1051
▁Bur	-1052
okt	-1053
lak	-1054
sel	-1055
▁aldı	-1056
tin	-1057
▁sistem	-1058
▁ik	-1059
▁Avrupa	-1060
▁''	-1061
ayan	-1062
redi	-1063
▁fazla	-1064
▁TL	-1065
▁ilişkin	-1066
▁hakkında	-1067
▁ya	-1068
▁üst	-1069
bilir	-1070
aştır	-1071
▁met	-1072
▁mi	-1073
layı	-1074
undan	-1075
▁Ama	-1076
▁harek	-1077
▁Doğ	-1078
▁gönder	-1079
▁sı	-1080
manın	-1081
imdi	-1082
▁tale	-1083
▁bank	-1084
cısı	-1085
▁gerçekleştir	-1086
letvek	-1087
▁İz	-1088
▁şu	-1089
▁Beledi	-1090
▁yardım	-1091
▁Suriye	-1092
▁öldür	-1093
izmet	-1094
acağı	-1095
▁ince	-1096
▁tab	-1097
adece	-1098
▁FETÖ	-1099
▁eder	-1100
luk	-1101
ehit	-1102
▁hedef	-1103
▁hastan	-1104
▁alındı	-1105
sini	-1106
muş	-1107
ımız	-1108
▁şekilde	-1109
▁başlat	-1110
▁Hastan	-1111
▁saldırı	-1112
▁üzerinde	-1113
▁Mu	-1114
asına	-1115
omob	-1116
▁Merkez	-1117
▁kazan	-1118
▁kapsamında	-1119
▁er	-1120
fon	-1121
laya	-1122
▁Mahkem	-1123
▁çar	-1124
▁sahip	-1125
ılması	-1126
▁para	-1127
cade	-1128
▁sık	-1129
▁diğer	-1130
▁bab	-1131
▁büy	-1132
asıl	-1133
▁asker	-1134
▁Bay	-1135
ekli	-1136
medi	-1137
ari	-1138
▁Devlet	-1139
▁yanı	-1140
gin	-1141
mı	-1142
ilece	-1143
van	-1144
uldu	-1145
sine	-1146
▁şüph	-1147
utlu	-1148
▁ci	-1149
AT	-1150
▁pat	-1151
kı	-1152
▁Bank	-1153
▁Es	-1154
▁Ah	-1155
▁arkadaş	-1156
▁şirket	-1157
▁değerlendir	-1158
larından	-1159
▁Gaz	-1160
▁terörist	-1161
▁kez	-1162
mez	-1163
masının	-1164
alarında	-1165
▁bilg	-1166
▁bulunduğu	-1167
mer	-1168
mişti	-1169
tak	-1170
lecek	-1171
▁ekipleri	-1172
lük	-1173
▁Gün	-1174
esinin	-1175
dil	-1176
.'	-1177
▁alınan	-1178
ütün	-1179
▁bur	-1180
▁Kurulu	-1181
▁eski	-1182
▁güvenlik	-1183
▁işlem	-1184
▁tesp	-1185
▁Pro	-1186
▁Emniyet	-1187
tay	-1188
abah	-1189
AY	-1190
cadele	-1191
izi	-1192
▁plan	-1193
▁ilçesinde	-1194
üç	-1195
▁sektör	-1196
▁üç	-1197
▁Büyük	-1198
▁Tem	-1199
ılıç	-1200
▁görün	-1201
▁0	-1202
▁Son	-1203
▁soruşturma	-1204
AD	-1205
lerimiz	-1206
▁isim	-1207
ilmesi	-1208
ıt	-1209
▁çıkan	-1210
azar	-1211
ımı	-1212
▁şöyle	-1213
▁meydana	-1214
▁Ancak	-1215
ğimiz	-1216
may	-1217
▁Dün	-1218
dde	-1219
LAR	-1220
▁Sav	-1221
▁yüksek	-1222
▁otomob	-1223
),	-1224
▁Ek	-1225
▁açıkla	-1226
ov	-1227
▁ele	-1228
can	-1229
▁Kan	-1230
▁kararı	-1231
umu	-1232
▁günü	-1233
osyal	-1234
▁ağır	-1235
EL	-1236
▁hizmet	-1237
▁çalışan	-1238
üsü	-1239
▁mı	-1240
▁parti	-1241
▁doğru	-1242
ınır	-1243
▁bor	-1244
▁ziy	-1245
▁kaybet	-1246
▁iti	-1247
▁kabul	-1248
▁kr	-1249
▁devlet	-1250
▁biri	-1251
▁Hav	-1252
▁genç	-1253
▁genel	-1254
▁kurul	-1255
▁Kılıç	-1256
larımız	-1257
▁mal	-1258
▁San	-1259
▁tamam	-1260
vur	-1261
▁olur	-1262
▁Mahalle	-1263
▁yaklaşık	-1264
mayı	-1265
▁böyle	-1266
DP	-1267
ırken	-1268
▁Top	-1269
lis	-1270
▁tespit	-1271
apor	-1272
▁fiyat	-1273
▁ait	-1274
▁içer	-1275
▁Olay	-1276
ıldığı	-1277
unları	-1278
▁hat	-1279
İR	-1280
AŞ	-1281
▁Gül	-1282
OR	-1283
ayas	-1284
▁mem	-1285
▁köy	-1286
deş	-1287
acı	-1288
sal	-1289
▁uyg	-1290
▁toplantı	-1291
gram	-1292
▁Ahmet	-1293
taş	-1294
▁üye	-1295
▁Ben	-1296
muz	-1297
yip	-1298
▁satış	-1299
▁nasıl	-1300
▁boy	-1301
▁ün	-1302
ana	-1303
▁Ali	-1304
tu	-1305
oğun	-1306
▁kom	-1307
▁kı	-1308
ılığı	-1309
▁İzmir	-1310
▁Biz	-1311
▁telefon	-1312
▁Den	-1313
▁uygu	-1314
▁mu	-1315
ullah	-1316
▁bağlı	-1317
▁Hal	-1318
EK	-1319
isyon	-1320
▁av	-1321
▁sağlık	-1322
dav	-1323
▁sadece	-1324
▁Ab	-1325
▁Diy	-1326
tiği	-1327
esini	-1328
gan	-1329
▁kır	-1330
afa	-1331
▁hız	-1332
▁darbe	-1333
asını	-1334
uvvet	-1335
▁Üniversit	-1336
▁din	-1337
kın	-1338
▁çarp	-1339
▁muh	-1340
akk	-1341
▁hüküm	-1342
▁belirten	-1343
▁başvur	-1344
▁veya	-1345
üf	-1346
AM	-1347
▁Poli	-1348
dın	-1349
▁sonr	-1350
▁25	-1351
trol	-1352
▁mahkem	-1353
▁olması	-1354
rar	-1355
bak	-1356
AB	-1357
▁teş	-1358
kili	-1359
ğunu	-1360
▁öde	-1361
▁beklen	-1362
▁iht	-1363
▁Bakanlığı	-1364
▁tartış	-1365
▁Dav	-1366
id	-1367
▁sok	-1368
sinin	-1369
▁konusunda	-1370
uma	-1371
▁Cez	-1372
▁17	-1373
▁istedi	-1374
▁kav	-1375
▁14	-1376
asının	-1377
▁bit	-1378
lum	-1379
▁Kay	-1380
▁Gü	-1381
omb	-1382
▁Ko	-1383
lektr	-1384
▁Tur	-1385
.5	-1386
yle	-1387
▁koy	-1388
▁çalışmalar	-1389
▁mev	-1390
▁başka	-1391
▁yakalan	-1392
▁13	-1393
amaz	-1394
İY	-1395
kinci	-1396
▁ayrı	-1397
▁dünya	-1398
▁müda	-1399
▁yönetim	-1400
▁Tek	-1401
aj	-1402
cağını	-1403
suz	-1404
▁kil	-1405
▁düşün	-1406
ince	-1407
ahat	-1408
▁Mahallesi	-1409
▁ayr	-1410
▁çöz	-1411
▁Tay	-1412
▁hayatını	-1413
▁gazete	-1414
▁yürüt	-1415
▁sonucu	-1416
▁kredi	-1417
▁belirterek	-1418
▁teh	-1419
▁Mar	-1420
▁30	-1421
gel	-1422
miyor	-1423
net	-1424
▁anlaş	-1425
▁günde	-1426
▁gelir	-1427
▁şehit	-1428
▁tür	-1429
▁hes	-1430
▁öğrenildi	-1431
▁ettiği	-1432
▁pay	-1433
▁rağ	-1434
▁kontrol	-1435
AS	-1436
▁fir	-1437
▁anlat	-1438
▁tanı	-1439
▁100	-1440
arası	-1441
▁altında	-1442
leyen	-1443
ika	-1444
şehir	-1445
▁kişinin	-1446
leriyle	-1447
▁Ceza	-1448
▁örgütü	-1449
▁art	-1450
▁16	-1451
▁At	-1452
▁traf	-1453
▁uzun	-1454
▁açıklamada	-1455
▁tur	-1456
mesini	-1457
▁oluştur	-1458
▁18	-1459
ayet	-1460
▁hafta	-1461
▁ancak	-1462
▁rağmen	-1463
▁Rus	-1464
▁sınır	-1465
▁başkan	-1466
gın	-1467
las	-1468
eği	-1469
.00	-1470
▁Demir	-1471
▁çağ	-1472
ceki	-1473
tiğini	-1474
andar	-1475
▁Terör	-1476
ceğ	-1477
▁Ne	-1478
umlu	-1479
▁gece	-1480
daroğlu	-1481
▁**	-1482
▁götür	-1483
▁***	-1484
malı	-1485
.,	-1486
Bu	-1487
▁Yardım	-1488
ınız	-1489
aban	-1490
▁tedav	-1491
üçük	-1492
DE	-1493
iyi	-1494
▁kamu	-1495
▁sevk	-1496
ınca	-1497
▁ihra	-1498
isinde	-1499
▁Mec	-1500
bakır	-1501
▁kardeş	-1502
orm	-1503
▁yük	-1504
▁toplam	-1505
arbakır	-1506
şam	-1507
lerek	-1508
lüğ	-1509
▁it	-1510
▁istiyor	-1511
▁Alman	-1512
IK	-1513
▁taşı	-1514
▁hava	-1515
▁ey	-1516
▁otomobil	-1517
laştır	-1518
▁itibar	-1519
▁şüpheli	-1520
▁Kara	-1521
IR	-1522
▁Yap	-1523
ümüz	-1524
▁Kılıçdaroğlu	-1525
▁mak	-1526
madı	-1527
ünkü	-1528
etici	-1529
▁Üniversitesi	-1530
▁Bey	-1531
letvekili	-1532
ener	-1533
▁Hastanesi	-1534
oğraf	-1535
tep	-1536
▁verildi	-1537
▁anla	-1538
▁la	-1539
▁Diyarbakır	-1540
▁Temmuz	-1541
▁ter	-1542
▁DE	-1543
▁yeniden	-1544
ver	-1545
▁bomb	-1546
▁geri	-1547
▁bütün	-1548
stafa	-1549
▁konusu	-1550
efer	-1551
▁aldığı	-1552
▁müdahale	-1553
▁Özel	-1554
▁belirtildi	-1555
▁imz	-1556
▁sürdür	-1557
▁ziyaret	-1558
üzel	-1559
▁belirtti	-1560
ley	-1561
▁artış	-1562
▁Ağ	-1563
▁Ön	-1564
ören	-1565
▁Yön	-1566
▁dönüş	-1567
▁diyor	-1568
talya	-1569
▁eğitim	-1570
▁Kür	-1571
▁Tayyip	-1572
▁Mustafa	-1573
▁Şu	-1574
ing	-1575
ünden	-1576
▁Kaz	-1577
▁grup	-1578
▁Komut	-1579
▁oran	-1580
ladığı	-1581
▁istem	-1582
▁dem	-1583
▁bar	-1584
eyin	-1585
duğu	-1586
▁Yeni	-1587
ayi	-1588
İT	-1589
ışma	-1590
▁proje	-1591
emal	-1592
rek	-1593
▁hap	-1594
rub	-1595
ocu	-1596
▁madde	-1597
landır	-1598
aların	-1599
▁artır	-1600
▁Ey	-1601
andarma	-1602
larıyla	-1603
▁etmek	-1604
▁ceza	-1605
▁üretim	-1606
yanın	-1607
▁tekn	-1608
▁yapıldı	-1609
▁sonuç	-1610
aha	-1611
▁farklı	-1612
▁Dr	-1613
unca	-1614
▁sen	-1615
▁ateş	-1616
▁sırasında	-1617
▁Der	-1618
▁veren	-1619
▁yaşa	-1620
▁altına	-1621
mesine	-1622
▁ortak	-1623
▁sun	-1624
aliyet	-1625
bay	-1626
ısında	-1627
▁zam	-1628
▁düzenlenen	-1629
lıyor	-1630
UR	-1631
ıcı	-1632
abancı	-1633
ğın	-1634
▁oğ	-1635
taki	-1636
▁boş	-1637
▁men	-1638
▁Hay	-1639
inci	-1640
ıla	-1641
▁kurum	-1642
▁soru	-1643
▁bölge	-1644
▁mücadele	-1645
▁Su	-1646
▁olduk	-1647
▁piyas	-1648
▁yayın	-1649
etr	-1650
ça	-1651
ağa	-1652
▁kayde	-1653
▁Mahkemesi	-1654
▁yaşam	-1655
▁öğrenci	-1656
▁Haz	-1657
▁Müdürü	-1658
▁On	-1659
sın	-1660
ayasa	-1661
▁yılında	-1662
alat	-1663
▁inş	-1664
▁tas	-1665
▁otur	-1666
▁Bölg	-1667
▁mer	-1668
▁görevli	-1669
fet	-1670
yesi	-1671
▁önceki	-1672
▁iddia	-1673
▁sabah	-1674
▁Si	-1675
▁yoğun	-1676
İM	-1677
▁katıl	-1678
dırım	-1679
lararası	-1680
▁tep	-1681
ala	-1682
ES	-1683
aştırma	-1684
▁engel	-1685
▁yağış	-1686
erkes	-1687
▁lider	-1688
▁elektr	-1689
duk	-1690
▁demokr	-1691
▁Ser	-1692
ni	-1693
▁artık	-1694
of	-1695
▁aday	-1696
▁kısa	-1697
▁sürü	-1698
▁Deniz	-1699
▁orta	-1700
▁ses	-1701
teki	-1702
▁hep	-1703
▁böl	-1704
▁rapor	-1705
▁eşi	-1706
20	-1707
▁ikinci	-1708
▁yurt	-1709
por	-1710
▁eylem	-1711
▁yapılacak	-1712
▁Ada	-1713
lo	-1714
▁talep	-1715
iyon	-1716
▁gider	-1717
çok	-1718
Türk	-1719
▁gerçekleş	-1720
▁med	-1721
▁oluş	-1722
su	-1723
▁indir	-1724
▁hareket	-1725
ğa	-1726
▁çalışma	-1727
▁geçti	-1728
▁Yardımcısı	-1729
masında	-1730
▁faaliyet	-1731
▁arac	-1732
▁bay	-1733
aba	-1734
erji	-1735
▁mark	-1736
desi	-1737
▁hiçbir	-1738
▁program	-1739
▁siyasi	-1740
oloji	-1741
▁pazar	-1742
▁sırada	-1743
cisi	-1744
işleri	-1745
▁oda	-1746
▁rek	-1747
▁Davut	-1748
▁Belediye	-1749
5'	-1750
▁girişim	-1751
▁hatır	-1752
▁anda	-1753
uzey	-1754
▁okul	-1755
▁tan	-1756
▁cin	-1757
detti	-1758
enaz	-1759
ecep	-1760
ılıyor	-1761
cat	-1762
dini	-1763
▁emekli	-1764
dum	-1765
▁verdiği	-1766
çak	-1767
sil	-1768
▁mo	-1769
sat	-1770
▁görüşme	-1771
ğin	-1772
▁ürün	-1773
▁saatlerinde	-1774
▁ihtiy	-1775
▁hast	-1776
▁dile	-1777
▁fır	-1778
▁yetkili	-1779
cılık	-1780
▁bah	-1781
▁Recep	-1782
▁ara	-1783
▁Ulu	-1784
▁Os	-1785
▁yaralandı	-1786
AH	-1787
▁his	-1788
▁yapıyor	-1789
tif	-1790
sav	-1791
otoğraf	-1792
▁Ad	-1793
ucu	-1794
gor	-1795
▁adet	-1796
nün	-1797
ON	-1798
esel	-1799
▁hale	-1800
▁Yıldırım	-1801
▁üzerinden	-1802
▁Ot	-1803
▁Hat	-1804
▁kapat	-1805
lel	-1806
▁res	-1807
▁Polis	-1808
br	-1809
IL	-1810
▁50	-1811
tım	-1812
▁am	-1813
EM	-1814
▁Davutoğlu	-1815
SK	-1816
▁1.	-1817
LER	-1818
▁ölüm	-1819
ılmış	-1820
lül	-1821
▁değişik	-1822
▁El	-1823
alama	-1824
yerek	-1825
esiyle	-1826
düğü	-1827
▁mağ	-1828
ola	-1829
ukuk	-1830
▁adım	-1831
▁Bunun	-1832
▁Tar	-1833
pan	-1834
ulus	-1835
anıyor	-1836
▁man	-1837
▁çocu	-1838
▁şah	-1839
umuz	-1840
▁Her	-1841
▁rahat	-1842
▁bilgiye	-1843
▁Geç	-1844
ren	-1845
▁Kemal	-1846
adolu	-1847
ültür	-1848
▁devr	-1849
▁dere	-1850
meyen	-1851
best	-1852
▁yine	-1853
▁un	-1854
eden	-1855
▁kaynak	-1856
▁yat	-1857
diklerini	-1858
▁yaptık	-1859
İK	-1860
▁24	-1861
ğünü	-1862
deniz	-1863
▁sosyal	-1864
▁paylaş	-1865
▁sorun	-1866
▁Uz	-1867
▁zar	-1868
▁tam	-1869
ternet	-1870
▁Güven	-1871
▁Meclis	-1872
▁İç	-1873
▁mesaj	-1874
▁isteyen	-1875
▁yem	-1876
▁Ev	-1877
bi	-1878
▁ör	-1879
▁halk	-1880
▁savun	-1881
▁can	-1882
▁adam	-1883
madan	-1884
▁yıllık	-1885
dikleri	-1886
▁faiz	-1887
▁Çünkü	-1888
lerce	-1889
üncü	-1890
▁şekl	-1891
▁sey	-1892
▁bunu	-1893
▁Milli	-1894
▁mas	-1895
▁Yılmaz	-1896
▁tahmin	-1897
müş	-1898
ğında	-1899
▁bilin	-1900
viz	-1901
tim	-1902
▁çif	-1903
tığını	-1904
▁söy	-1905
▁İlk	-1906
▁Anadolu	-1907
▁Fat	-1908
▁şimdi	-1909
▁akşam	-1910
▁fotoğraf	-1911
▁önc	-1912
▁Bankası	-1913
gür	-1914
▁bizim	-1915
▁tük	-1916
İZ	-1917
▁vurgu	-1918
▁kaydetti	-1919
▁Kö	-1920
▁savaş	-1921
dül	-1922
▁yaşanan	-1923
▁Sağ	-1924
▁memur	-1925
▁kalan	-1926
liye	-1927
dıkları	-1928
▁kesim	-1929
▁dolayı	-1930
▁benz	-1931
mekte	-1932
▁Osman	-1933
ğim	-1934
▁Bar	-1935
▁Daha	-1936
▁bulutlu	-1937
▁fil	-1938
asıyla	-1939
▁Bah	-1940
inans	-1941
anak	-1942
▁bunun	-1943
▁Yüks	-1944
▁Kürt	-1945
▁ces	-1946
▁Şah	-1947
▁düny	-1948
▁sak	-1949
▁kit	-1950
lif	-1951
dağ	-1952
▁MHP	-1953
▁Yun	-1954
etmen	-1955
DA	-1956
▁Kas	-1957
▁sayıda	-1958
▁yüksel	-1959
▁Ok	-1960
layacak	-1961
unuyor	-1962
▁ilişki	-1963
▁İst	-1964
▁Rusya	-1965
mar	-1966
▁sıra	-1967
▁ann	-1968
▁Şub	-1969
▁ederek	-1970
ğine	-1971
▁ber	-1972
▁tat	-1973
▁Antalya	-1974
icaret	-1975
▁ediliyor	-1976
▁sahibi	-1977
▁olsun	-1978
▁dair	-1979
▁Dur	-1980
▁cenaz	-1981
▁toplum	-1982
▁ayında	-1983
meyi	-1984
▁nokt	-1985
▁hapis	-1986
▁cev	-1987
▁Eğitim	-1988
▁açıkladı	-1989
▁Cad	-1990
▁Başsav	-1991
▁edecek	-1992
▁Yönetim	-1993
▁ulus	-1994
▁bun	-1995
ğinde	-1996
▁Kad	-1997
▁güzel	-1998
▁kesin	-1999
▁teslim	-2000
30	-2001
atürk	-2002
▁Az	-2003
▁kayb	-2004
▁dönemde	-2005
▁seb	-2006
▁21	-2007
▁sürec	-2008
▁Kor	-2009
ayın	-2010
▁çat	-2011
ilmiş	-2012
alim	-2013
▁dah	-2014
▁Aydın	-2015
▁üc	-2016
AP	-2017
50	-2018
ST	-2019
▁büyü	-2020
ÜR	-2021
▁Fran	-2022
iran	-2023
▁Muh	-2024
▁avuk	-2025
▁siyaset	-2026
▁sonrası	-2027
ıntı	-2028
uluk	-2029
▁birçok	-2030
nek	-2031
▁sit	-2032
izin	-2033
▁bölüm	-2034
▁inceleme	-2035
sinde	-2036
▁Fak	-2037
ört	-2038
▁anlam	-2039
▁çevr	-2040
▁Adana	-2041
▁Hol	-2042
▁HDP	-2043
▁tepki	-2044
ami	-2045
Dİ	-2046
▁rak	-2047
▁kent	-2048
▁yaşayan	-2049
od	-2050
▁kurtar	-2051
▁serbest	-2052
▁22	-2053
eme	-2054
izm	-2055
▁açıl	-2056
ğına	-2057
▁Do	-2058
▁burada	-2059
▁geliyor	-2060
erson	-2061
▁depr	-2062
▁j	-2063
mayan	-2064
▁yandan	-2065
▁tedavi	-2066
▁pr	-2067
▁Fet	-2068
DI	-2069
▁kuruluş	-2070
▁değiştir	-2071
eşit	-2072
▁açı	-2073
▁elektrik	-2074
▁Şimdi	-2075
abilir	-2076
▁Gen	-2077
▁gazeteci	-2078
abi	-2079
etrol	-2080
ber	-2081
ivil	-2082
▁mens	-2083
ent	-2084
▁500	-2085
▁Irak	-2086
▁oyun	-2087
bilece	-2088
oktor	-2089
meden	-2090
▁söyleyen	-2091
▁görüntü	-2092
laması	-2093
meli	-2094
edeki	-2095
▁başar	-2096
ayıs	-2097
▁Gör	-2098
dük	-2099
evi	-2100
▁önünde	-2101
▁ila	-2102
▁takip	-2103
▁istih	-2104
▁uçak	-2105
▁askeri	-2106
▁sanık	-2107
▁kaybetti	-2108
abı	-2109
▁gidi	-2110
▁28	-2111
enk	-2112
▁Başkanlığı	-2113
lamak	-2114
▁uzak	-2115
▁Almanya	-2116
▁içerisinde	-2117
cil	-2118
-1	-2119
onu	-2120
ici	-2121
kur	-2122
mesinin	-2123
▁Alt	-2124
▁Bil	-2125
▁karış	-2126
▁Kam	-2127
▁Atatürk	-2128
▁Kal	-2129
ıyoruz	-2130
▁kork	-2131
▁tav	-2132
ga	-2133
ceği	-2134
▁Ve	-2135
oloj	-2136
▁Prof	-2137
▁şik	-2138
▁sokak	-2139
▁kas	-2140
▁gelecek	-2141
▁üret	-2142
▁boz	-2143
▁yapmak	-2144
▁Har	-2145
▁Dış	-2146
▁mut	-2147
▁müş	-2148
▁yılda	-2149
ova	-2150
ıda	-2151
▁kol	-2152
▁üy	-2153
▁bildirdi	-2154
▁hemen	-2155
▁Gök	-2156
▁amacı	-2157
▁23	-2158
▁Amer	-2159
▁yazı	-2160
▁girdi	-2161
▁Eski	-2162
alarda	-2163
▁küçük	-2164
▁emniyet	-2165
▁internet	-2166
▁itibaren	-2167
▁hesap	-2168
▁tören	-2169
BM	-2170
ayla	-2171
▁şeklinde	-2172
▁bildirildi	-2173
▁sar	-2174
ve	-2175
▁düştü	-2176
ndan	-2177
aşa	-2178
mat	-2179
▁40	-2180
▁deprem	-2181
▁yerinde	-2182
Türkiye	-2183
cılar	-2184
adi	-2185
lamaya	-2186
▁sayısı	-2187
▁Yak	-2188
ide	-2189
▁basın	-2190
▁benim	-2191
▁belirti	-2192
▁kurt	-2193
gaz	-2194
▁çözüm	-2195
▁kir	-2196
▁arama	-2197
▁yana	-2198
▁millet	-2199
lediği	-2200
▁giden	-2201
▁müz	-2202
▁olmadığını	-2203
▁mez	-2204
ceğini	-2205
▁Hüs	-2206
ilim	-2207
esinden	-2208
▁Caddesi	-2209
eceği	-2210
▁yanıt	-2211
anistan	-2212
ült	-2213
▁hey	-2214
ışı	-2215
▁konut	-2216
▁Mur	-2217
▁ip	-2218
▁daki	-2219
▁duyur	-2220
▁derece	-2221
başı	-2222
▁yılın	-2223
▁Merkezi	-2224
nden	-2225
▁Jandarma	-2226
▁koş	-2227
▁dir	-2228
▁ihracat	-2229
▁bekleniyor	-2230
▁başına	-2231
sıyla	-2232
▁herkes	-2233
▁duruş	-2234
▁Bugün	-2235
▁otob	-2236
▁yarat	-2237
▁kuvvet	-2238
▁verilen	-2239
▁belirlendi	-2240
▁Aralık	-2241
2'	-2242
▁kayıt	-2243
LU	-2244
dam	-2245
▁Sor	-2246
rik	-2247
▁tehdi	-2248
▁Kır	-2249
▁ettik	-2250
▁trafik	-2251
▁Sal	-2252
▁person	-2253
▁plak	-2254
▁kalk	-2255
▁işçi	-2256
▁dö	-2257
▁yaralı	-2258
▁beledi	-2259
3'	-2260
▁sanat	-2261
cılığı	-2262
▁İşte	-2263
alara	-2264
▁Böyle	-2265
▁Dünya	-2266
▁yabancı	-2267
▁2.	-2268
▁durumu	-2269
isinin	-2270
▁2011	-2271
atik	-2272
▁öne	-2273
▁gören	-2274
leye	-2275
isan	-2276
▁oluyor	-2277
teri	-2278
tem	-2279
▁yarg	-2280
iddet	-2281
alım	-2282
▁çeşit	-2283
▁çevre	-2284
▁şunları	-2285
üst	-2286
▁halinde	-2287
▁Eylül	-2288
▁yolcu	-2289
▁Yüksek	-2290
gen	-2291
▁Hak	-2292
▁geniş	-2293
▁Mayıs	-2294
arken	-2295
BMM	-2296
▁Kap	-2297
▁aralarında	-2298
▁Bursa	-2299
▁inan	-2300
ere	-2301
▁bakan	-2302
▁kaldırıldı	-2303
▁zarar	-2304
▁Mart	-2305
▁parç	-2306
▁yor	-2307
?"	-2308
▁Belediyesi	-2309
air	-2310
▁izin	-2311
irken	-2312
siniz	-2313
dildi	-2314
doğu	-2315
adan	-2316
▁organ	-2317
▁getirdi	-2318
▁yargı	-2319
▁yıldır	-2320
▁ekonomik	-2321
▁Gülen	-2322
uro	-2323
▁(2	-2324
▁ikti	-2325
manı	-2326
▁ileri	-2327
▁taz	-2328
▁borç	-2329
ıldız	-2330
erli	-2331
zi	-2332
▁aylık	-2333
▁medya	-2334
▁teklif	-2335
ırı	-2336
▁sıcak	-2337
▁başlayan	-2338
▁Af	-2339
şe	-2340
▁anne	-2341
kün	-2342
▁beb	-2343
▁Abd	-2344
kurmay	-2345
▁Aç	-2346
▁İki	-2347
▁katıldı	-2348
▁ilçe	-2349
ildiği	-2350
▁Hava	-2351
▁Bor	-2352
▁özellikle	-2353
▁metre	-2354
cel	-2355
dıklarını	-2356
▁adı	-2357
▁tekrar	-2358
▁Gazi	-2359
▁vardı	-2360
▁tutuklandı	-2361
▁diyerek	-2362
▁ciddi	-2363
dem	-2364
▁Van	-2365
▁ilgi	-2366
ÜN	-2367
▁Haziran	-2368
▁diyen	-2369
▁kut	-2370
▁uygulan	-2371
▁TBMM	-2372
▁dava	-2373
▁Şube	-2374
▁üniversit	-2375
▁Anayasa	-2376
▁kaldı	-2377
acağını	-2378
şi	-2379
▁gerekç	-2380
▁Can	-2381
leti	-2382
büs	-2383
▁gazet	-2384
cılı	-2385
▁sefer	-2386
▁Güvenlik	-2387
▁gerekiyor	-2388
mayacak	-2389
ülü	-2390
▁Tr	-2391
▁Kuvvet	-2392
anış	-2393
▁erk	-2394
osu	-2395
▁gelişme	-2396
▁Ağır	-2397
▁uygun	-2398
AZ	-2399
▁şart	-2400
▁Sar	-2401
eyle	-2402
▁Bal	-2403
▁Milletvekili	-2404
▁sivil	-2405
lemek	-2406
lanıyor	-2407
▁yapacak	-2408
▁Çin	-2409
mıyor	-2410
▁Orta	-2411
▁han	-2412
▁hen	-2413
aten	-2414
▁Genelkurmay	-2415
▁bı	-2416
ısı	-2417
▁aktar	-2418
▁finans	-2419
ısından	-2420
▁Hakk	-2421
▁dışında	-2422
▁bey	-2423
ğe	-2424
▁tasar	-2425
▁kriz	-2426
leşme	-2427
kenin	-2428
▁altın	-2429
▁İh	-2430
▁Kurumu	-2431
▁kuruş	-2432
anım	-2433
elç	-2434
▁Şubat	-2435
▁adlı	-2436
▁Örgüt	-2437
madığı	-2438
▁amacıyla	-2439
▁sağanak	-2440
▁arada	-2441
▁Söz	-2442
asi	-2443
▁ner	-2444
▁oku	-2445
▁gitti	-2446
tepe	-2447
▁27	-2448
▁öldü	-2449
▁gele	-2450
lanması	-2451
makta	-2452
ümkün	-2453
▁grub	-2454
▁Org	-2455
▁yanında	-2456
rıca	-2457
uyu	-2458
TI	-2459
▁nedenle	-2460
▁bulunuyor	-2461
▁çiz	-2462
▁veri	-2463
siyon	-2464
▁AN	-2465
▁not	-2466
4'	-2467
sik	-2468
▁Ocak	-2469
lev	-2470
▁kilom	-2471
▁alacak	-2472
bilecek	-2473
▁Tıp	-2474
AC	-2475
sunuz	-2476
▁temsil	-2477
▁Gür	-2478
ahim	-2479
▁Murat	-2480
rem	-2481
▁per	-2482
▁üyesi	-2483
ke	-2484
yet	-2485
▁tarihi	-2486
lış	-2487
OĞ	-2488
▁oyn	-2489
acağız	-2490
ej	-2491
▁Hüseyin	-2492
▁Çelik	-2493
ısını	-2494
▁Yargı	-2495
isini	-2496
hangi	-2497
▁pu	-2498
ndeki	-2499
▁Sul	-2500
▁seviy	-2501
▁list	-2502
meliy	-2503
▁Mal	-2504
▁hisse	-2505
▁Şahin	-2506
▁itir	-2507
▁ücret	-2508
▁Val	-2509
▁hükümet	-2510
faiye	-2511
LE	-2512
▁Ayrıca	-2513
▁Bin	-2514
▁Komutan	-2515
▁Sü	-2516
▁alıyor	-2517
6'	-2518
gör	-2519
▁istik	-2520
mada	-2521
▁yolu	-2522
lanacak	-2523
▁hukuk	-2524
▁mahkeme	-2525
▁şiddet	-2526
▁eleştir	-2527
▁mümkün	-2528
▁dağı	-2529
▁araya	-2530
neği	-2531
▁yansı	-2532
▁giz	-2533
liğini	-2534
▁dünyanın	-2535
▁Bayram	-2536
OK	-2537
▁arasındaki	-2538
▁vergi	-2539
▁Güney	-2540
▁ris	-2541
sen	-2542
ündeki	-2543
▁çift	-2544
mıştır	-2545
ciler	-2546
▁gerektiğini	-2547
ag	-2548
▁kamer	-2549
▁alış	-2550
siyle	-2551
▁birbir	-2552
▁anlattı	-2553
▁iste	-2554
▁yık	-2555
▁Nisan	-2556
har	-2557
menin	-2558
EC	-2559
meni	-2560
▁Yıldız	-2561
9'	-2562
ünüyor	-2563
pek	-2564
▁hâ	-2565
▁kür	-2566
kaç	-2567
▁Yunanistan	-2568
▁Genç	-2569
▁Erz	-2570
▁Kı	-2571
▁geliştir	-2572
▁Araştırma	-2573
▁Tak	-2574
şim	-2575
,5	-2576
▁Kız	-2577
ydı	-2578
▁atan	-2579
▁Mes	-2580
mızı	-2581
▁Doğan	-2582
isine	-2583
▁Sağlık	-2584
▁bana	-2585
ısına	-2586
▁tehdit	-2587
▁Tun	-2588
▁ambul	-2589
▁num	-2590
ceğiz	-2591
▁yılı	-2592
▁petrol	-2593
▁uluslararası	-2594
▁Birliği	-2595
▁dolarlık	-2596
asından	-2597
yız	-2598
▁şehir	-2599
etre	-2600
▁öğretmen	-2601
▁önlem	-2602
▁yangın	-2603
altı	-2604
ang	-2605
ılacak	-2606
▁vatandaşlar	-2607
▁Kasım	-2608
alarının	-2609
▁yaptır	-2610
▁Mer	-2611
▁ana	-2612
▁Büyükşehir	-2613
gil	-2614
▁belirlen	-2615
▁giren	-2616
▁olmayan	-2617
▁araştır	-2618
▁boyunca	-2619
▁düşür	-2620
rail	-2621
▁doktor	-2622
var	-2623
▁veriyor	-2624
layarak	-2625
▁yargılan	-2626
▁adına	-2627
▁dol	-2628
eneral	-2629
letvekil	-2630
▁durdur	-2631
▁çeşitli	-2632
▁İran	-2633
▁Doğu	-2634
AV	-2635
▁müdür	-2636
▁cevap	-2637
▁bölgede	-2638
cut	-2639
▁kendisine	-2640
dek	-2641
▁bize	-2642
▁3.	-2643
▁Haber	-2644
zı	-2645
▁dos	-2646
IŞ	-2647
▁gec	-2648
▁anlatan	-2649
sim	-2650
▁Abdullah	-2651
ladık	-2652
▁Di	-2653
ant	-2654
▁sonunda	-2655
▁öyle	-2656
▁başarı	-2657
▁belediye	-2658
cilik	-2659
▁ha	-2660
▁ettiğini	-2661
▁26	-2662
▁Oy	-2663
sızlık	-2664
▁zanlı	-2665
▁avukat	-2666
oh	-2667
▁kaf	-2668
taj	-2669
▁elde	-2670
▁cep	-2671
ınav	-2672
▁Komutanlığı	-2673
ağına	-2674
▁cezası	-2675
▁Sanayi	-2676
▁mik	-2677
tiv	-2678
ast	-2679
▁Dair	-2680
alarını	-2681
▁nak	-2682
▁doğal	-2683
▁rakam	-2684
abet	-2685
▁süreç	-2686
▁erkek	-2687
▁Sev	-2688
gar	-2689
▁veril	-2690
▁konuda	-2691
▁kolay	-2692
▁tehlik	-2693
eder	-2694
cih	-2695
erken	-2696
▁katkı	-2697
Lİ	-2698
▁ünlü	-2699
▁Fatih	-2700
▁olmadığı	-2701
hal	-2702
▁herhangi	-2703
sanı	-2704
▁Bağ	-2705
çesi	-2706
UN	-2707
▁Çok	-2708
üb	-2709
ğust	-2710
▁pek	-2711
▁yakalandı	-2712
▁199	-2713
çev	-2714
▁Çal	-2715
▁Nur	-2716
▁henüz	-2717
▁süren	-2718
▁ted	-2719
▁Yaş	-2720
▁almak	-2721
esindeki	-2722
eler	-2723
▁ham	-2724
▁Ül	-2725
▁Yani	-2726
bol	-2727
▁tali	-2728
ıldığını	-2729
aralel	-2730
▁Se	-2731
▁nit	-2732
cağız	-2733
▁beraber	-2734
abilecek	-2735
ıyla	-2736
ınan	-2737
▁ülkenin	-2738
diğini	-2739
âr	-2740
▁tedbir	-2741
▁politik	-2742
ısının	-2743
▁bıçak	-2744
▁inşaat	-2745
▁kuzey	-2746
ch	-2747
▁işbir	-2748
▁Dışişleri	-2749
lasyon	-2750
7'	-2751
izde	-2752
lemeye	-2753
▁uğr	-2754
▁ir	-2755
▁dışı	-2756
▁esn	-2757
erçev	-2758
mur	-2759
▁hastaneye	-2760
▁Beş	-2761
sizlik	-2762
tör	-2763
▁mensup	-2764
gun	-2765
▁Bun	-2766
▁çekti	-2767
▁işlet	-2768
▁operasyonda	-2769
▁gördü	-2770
dim	-2771
▁kilo	-2772
▁Sosyal	-2773
▁uzman	-2774
▁ihale	-2775
urum	-2776
▁ölü	-2777
▁yönet	-2778
ding	-2779
▁enerji	-2780
▁isimli	-2781
▁boğ	-2782
▁otel	-2783
▁yazılı	-2784
▁belli	-2785
anlar	-2786
kür	-2787
fer	-2788
miştir	-2789
SY	-2790
▁getiren	-2791
çeli	-2792
▁hayata	-2793
▁düzey	-2794
▁çerçev	-2795
▁hakim	-2796
▁Öte	-2797
▁ku	-2798
",	-2799
▁çalışmaları	-2800
▁sürücü	-2801
▁kapı	-2802
▁etkin	-2803
▁türlü	-2804
▁plakalı	-2805
demir	-2806
▁babası	-2807
üğ	-2808
▁oğlu	-2809
▁tercih	-2810
aket	-2811
▁gide	-2812
▁Hasan	-2813
lin	-2814
▁Yapılan	-2815
▁Seç	-2816
▁zorunda	-2817
▁mode	-2818
eleri	-2819
▁mot	-2820
▁yükse	-2821
ınıf	-2822
kal	-2823
OB	-2824
arkı	-2825
anam	-2826
▁durumda	-2827
▁dok	-2828
ağım	-2829
umsuz	-2830
tur	-2831
▁alanda	-2832
brahim	-2833
▁tr	-2834
▁yanlış	-2835
▁İsrail	-2836
▁uğ	-2837
▁Bul	-2838
▁dayan	-2839
ğustos	-2840
▁Yal	-2841
▁kullandığı	-2842
▁Allah	-2843
▁başlattı	-2844
ÖR	-2845
▁Sok	-2846
▁kullandı	-2847
▁personel	-2848
▁önüne	-2849
▁olabilir	-2850
8'	-2851
▁Ekim	-2852
▁işaret	-2853
▁Sin	-2854
▁kaydedildi	-2855
▁amaç	-2856
masından	-2857
▁başında	-2858
▁29	-2859
larca	-2860
▁kaybe	-2861
ümüzdeki	-2862
DEN	-2863
▁maaş	-2864
ülüyor	-2865
▁Man	-2866
▁başla	-2867
▁Çağ	-2868
▁Kim	-2869
▁İÇ	-2870
▁İbrahim	-2871
▁kendisini	-2872
▁yarar	-2873
▁biliyor	-2874
EY	-2875
▁zamanda	-2876
İŞ	-2877
▁onun	-2878
▁ilçesi	-2879
▁sıralarında	-2880
▁serv	-2881
▁yere	-2882
▁düşük	-2883
▁yola	-2884
emi	-2885
▁milletvekili	-2886
▁uyar	-2887
▁BDP	-2888
amet	-2889
▁gereken	-2890
▁tutuklu	-2891
▁Mücadele	-2892
▁Kat	-2893
▁dahil	-2894
ahr	-2895
meleri	-2896
▁başta	-2897
▁Boz	-2898
▁Proj	-2899
alimanı	-2900
▁milletvekil	-2901
▁doğr	-2902
▁ayrıca	-2903
▁sürüyor	-2904
▁net	-2905
▁(3	-2906
?.	-2907
▁31	-2908
▁puan	-2909
▁Tan	-2910
▁yayım	-2911
alarına	-2912
▁başvuru	-2913
▁AL	-2914
▁mahalle	-2915
▁ortam	-2916
rada	-2917
▁mini	-2918
▁film	-2919
▁azal	-2920
muştu	-2921
▁ödül	-2922
vizyon	-2923
▁Açık	-2924
▁Buna	-2925
▁kampan	-2926
dat	-2927
▁olmaz	-2928
▁gerekli	-2929
▁adr	-2930
iyatı	-2931
▁Hüküm	-2932
▁güçlü	-2933
zım	-2934
▁Komisyon	-2935
leniyor	-2936
▁silahlı	-2937
▁bakım	-2938
▁kamyon	-2939
köy	-2940
▁metrek	-2941
▁satın	-2942
dak	-2943
▁Ulus	-2944
YOR	-2945
avuş	-2946
▁gez	-2947
UL	-2948
▁vak	-2949
tere	-2950
▁sigor	-2951
tıyor	-2952
▁(1	-2953
anan	-2954
▁trafi	-2955
▁unut	-2956
▁çeken	-2957
▁hızlı	-2958
▁alarak	-2959
▁Cem	-2960
▁OL	-2961
sında	-2962
▁60	-2963
▁ambulans	-2964
IM	-2965
▁tesi	-2966
▁ihtiyaç	-2967
▁yaralanan	-2968
▁cezaev	-2969
▁temel	-2970
▁açıklamalar	-2971
▁Ekonom	-2972
▁Konya	-2973
▁Derneği	-2974
▁karşılık	-2975
acılık	-2976
▁getirildi	-2977
mam	-2978
luluk	-2979
gül	-2980
!..	-2981
ker	-2982
Ben	-2983
▁onu	-2984
▁Sür	-2985
▁dört	-2986
dal	-2987
▁yani	-2988
ırnak	-2989
türk	-2990
▁günlerde	-2991
▁35	-2992
▁belge	-2993
ğun	-2994
▁oranı	-2995
▁dal	-2996
lulu	-2997
▁kilometre	-2998
▁Bel	-2999
▁bekliyor	-3000
ınar	-3001
▁Kendi	-3002
▁DA	-3003
▁ilan	-3004
▁temiz	-3005
▁geçmiş	-3006
▁müh	-3007
▁savcı	-3008
▁yerde	-3009
▁Sarı	-3010
▁gerekçesiyle	-3011
▁tutuklan	-3012
kim	-3013
▁açıldı	-3014
▁liraya	-3015
▁beni	-3016
uşturucu	-3017
üyle	-3018
lüyor	-3019
▁işada	-3020
▁Çocuk	-3021
▁Holding	-3022
▁itfaiye	-3023
▁yönetici	-3024
barat	-3025
▁sonuc	-3026
▁mesele	-3027
▁oluşan	-3028
▁İnsan	-3029
▁özgür	-3030
▁Adalet	-3031
imizin	-3032
▁kültür	-3033
▁açtı	-3034
▁araz	-3035
▁taleb	-3036
▁sonrasında	-3037
sta	-3038
▁bö	-3039
▁kaçır	-3040
ela	-3041
dinilen	-3042
şı	-3043
▁bomba	-3044
ğının	-3045
▁yıla	-3046
▁kötü	-3047
madığını	-3048
▁olsa	-3049
amız	-3050
ilmek	-3051
▁Yas	-3052
▁Boğ	-3053
▁öğ	-3054
▁müşteri	-3055
trat	-3056
ekkür	-3057
▁otobüs	-3058
▁sorumlu	-3059
▁sürede	-3060
▁açısından	-3061
luğu	-3062
og	-3063
▁acı	-3064
▁sınıf	-3065
▁idar	-3066
Sİ	-3067
▁Sam	-3068
▁resmi	-3069
lamalar	-3070
▁merkezi	-3071
▁olup	-3072
▁buldu	-3073
▁baba	-3074
▁ayak	-3075
▁sin	-3076
lüm	-3077
nik	-3078
▁kaçak	-3079
maması	-3080
▁İdar	-3081
▁halde	-3082
▁Yargıtay	-3083
▁Ömer	-3084
kanlığı	-3085
meyecek	-3086
▁gösterdi	-3087
▁Yol	-3088
IZ	-3089
▁olumsuz	-3090
yu	-3091
▁Geçen	-3092
▁ab	-3093
lenmesi	-3094
▁Bahçeli	-3095
▁Sabah	-3096
▁Ber	-3097
▁imza	-3098
▁sol	-3099
cüsü	-3100
▁düşünüyor	-3101
mesiyle	-3102
▁deniz	-3103
▁büyüme	-3104
▁şaş	-3105
ban	-3106
▁çalışıyor	-3107
▁Göz	-3108
▁prot	-3109
giltere	-3110
▁geçiş	-3111
▁du	-3112
fi	-3113
içek	-3114
▁büyüm	-3115
PD	-3116
▁vade	-3117
▁Fransa	-3118
amazan	-3119
▁Zir	-3120
itir	-3121
▁hayvan	-3122
▁Bab	-3123
▁Aile	-3124
▁def	-3125
▁taban	-3126
▁ton	-3127
▁yapıla	-3128
▁AR	-3129
ort	-3130
adem	-3131
▁düzenleme	-3132
▁yorum	-3133
▁aracı	-3134
gisi	-3135
▁nok	-3136
ime	-3137
sak	-3138
ser	-3139
▁Tu	-3140
▁Ağustos	-3141
ahraman	-3142
apı	-3143
▁dakika	-3144
liğine	-3145
▁öner	-3146
▁Ara	-3147
▁vaz	-3148
ABAH	-3149
lında	-3150
▁dost	-3151
geç	-3152
▁Halk	-3153
▁yerel	-3154
▁İddi	-3155
atör	-3156
UM	-3157
▁hır	-3158
yak	-3159
ormal	-3160
▁katılan	-3161
Tİ	-3162
Bir	-3163
▁risk	-3164
▁ulaştı	-3165
▁Bat	-3166
▁sıkıntı	-3167
▁verecek	-3168
▁davet	-3169
mektedir	-3170
▁gündeme	-3171
liğe	-3172
▁geçirildi	-3173
▁edildiği	-3174
▁barış	-3175
▁çıkış	-3176
▁Şırnak	-3177
▁yang	-3178
▁görüyor	-3179
▁sistemi	-3180
▁ülkede	-3181
▁kuru	-3182
layıcı	-3183
▁sınav	-3184
EŞ	-3185
▁öden	-3186
▁etkili	-3187
▁değildir	-3188
rim	-3189
▁Uy	-3190
▁günlük	-3191
elim	-3192
▁dolara	-3193
atif	-3194
▁bede	-3195
▁Sak	-3196
▁Vak	-3197
▁evde	-3198
▁bilen	-3199
ba	-3200
lardır	-3201
▁İngiltere	-3202
po	-3203
antep	-3204
ısır	-3205
▁döneminde	-3206
elikop	-3207
▁haline	-3208
sur	-3209
hane	-3210
ıma	-3211
barı	-3212
▁lazım	-3213
lamada	-3214
ze	-3215
uç	-3216
TÜ	-3217
▁defa	-3218
▁namaz	-3219
▁yitir	-3220
▁örnek	-3221
seri	-3222
▁gönderildi	-3223
▁Sokak	-3224
lığını	-3225
▁Çev	-3226
▁yöntem	-3227
▁Grub	-3228
▁gösteren	-3229
▁Hem	-3230
▁iktidar	-3231
▁Küçük	-3232
▁euro	-3233
liğin	-3234
yer	-3235
▁kişilik	-3236
veriş	-3237
▁Kurul	-3238
▁yurtdış	-3239
▁Taş	-3240
▁bür	-3241
Biz	-3242
▁Sultan	-3243
▁dışarı	-3244
▁don	-3245
▁attı	-3246
masıyla	-3247
uvar	-3248
▁tazmin	-3249
▁yetiş	-3250
▁um	-3251
▁yarın	-3252
-2	-3253
eşil	-3254
ebilir	-3255
ruk	-3256
▁SABAH	-3257
nu	-3258
▁gay	-3259
amaya	-3260
ezi	-3261
▁İlçe	-3262
▁Burada	-3263
▁Din	-3264
▁yürütülen	-3265
▁birkaç	-3266
gü	-3267
iyoruz	-3268
▁beş	-3269
▁KAR	-3270
▁Altın	-3271
▁tüf	-3272
▁hastane	-3273
▁buna	-3274
▁hangi	-3275
▁gösteri	-3276
▁alına	-3277
▁liralık	-3278
▁kaza	-3279
▁Kuvvetleri	-3280
▁alk	-3281
▁TÜ	-3282
▁ameliy	-3283
▁söylüyor	-3284
▁ruh	-3285
ersin	-3286
masın	-3287
▁tarihinde	-3288
▁edilmesi	-3289
▁Koç	-3290
▁inti	-3291
▁Öğr	-3292
▁yaşadığı	-3293
▁muhale	-3294
▁demek	-3295
▁iptal	-3296
▁düşen	-3297
▁Gaziantep	-3298
şık	-3299
▁fiyatı	-3300
▁Zey	-3301
atan	-3302
▁fab	-3303
▁2015	-3304
▁suçundan	-3305
liler	-3306
abilece	-3307
▁annesi	-3308
▁ödeme	-3309
▁geldiği	-3310
▁küresel	-3311
▁nüf	-3312
▁İslam	-3313
▁turist	-3314
aray	-3315
▁şar	-3316
▁bayram	-3317
▁sürekli	-3318
▁gündem	-3319
sınız	-3320
▁Başsavcılığı	-3321
anet	-3322
▁şahıs	-3323
▁fırsat	-3324
giliz	-3325
▁34	-3326
IKL	-3327
.3	-3328
▁kaybeden	-3329
prü	-3330
olojik	-3331
▁kuş	-3332
▁Fetullah	-3333
sul	-3334
▁akıl	-3335
▁Enerji	-3336
▁giy	-3337
imizi	-3338
▁Batı	-3339
▁ders	-3340
▁nokta	-3341
▁Havalimanı	-3342
▁baz	-3343
▁Kurt	-3344
▁araştırma	-3345
▁Sonra	-3346
▁peş	-3347
▁Koca	-3348
▁fak	-3349
lenecek	-3350
rika	-3351
▁gizli	-3352
liyeye	-3353
▁mağaz	-3354
▁sebeb	-3355
▁lideri	-3356
▁hafif	-3357
▁300	-3358
▁Gazete	-3359
▁kızı	-3360
asyonu	-3361
▁Ticaret	-3362
▁açılan	-3363
▁yaşında	-3364
ulması	-3365
▁Ka	-3366
▁mağdur	-3367
▁bağım	-3368
▁dağ	-3369
ton	-3370
▁İÇİN	-3371
An	-3372
yası	-3373
▁Eş	-3374
▁Karadeniz	-3375
▁vatandaşların	-3376
lığına	-3377
▁istihdam	-3378
▁Sayın	-3379
▁Örgütü	-3380
kâ	-3381
ati	-3382
▁edilecek	-3383
lanma	-3384
▁ticaret	-3385
▁yapılması	-3386
▁yasak	-3387
▁park	-3388
leyman	-3389
mara	-3390
lâ	-3391
landığı	-3392
▁kamuoy	-3393
inc	-3394
▁Edinilen	-3395
▁civar	-3396
▁konuşan	-3397
▁karşılaş	-3398
abir	-3399
bank	-3400
▁karşısında	-3401
▁Mahkeme	-3402
▁Kuzey	-3403
▁etmeye	-3404
▁sona	-3405
.1	-3406
ERİN	-3407
▁şeh	-3408
▁beri	-3409
▁uyarı	-3410
▁polise	-3411
▁kitap	-3412
▁1,	-3413
▁red	-3414
▁kayıp	-3415
▁tatil	-3416
bah	-3417
▁Yet	-3418
▁İngiliz	-3419
ümü	-3420
▁Şehit	-3421
▁Yüz	-3422
bur	-3423
▁yal	-3424
▁çağrı	-3425
▁olmadı	-3426
▁tabi	-3427
▁(4	-3428
▁çey	-3429
abz	-3430
▁öngör	-3431
eceğini	-3432
mut	-3433
mail	-3434
▁dünyada	-3435
▁İlçesi	-3436
▁Karak	-3437
▁televizyon	-3438
▁yen	-3439
▁davran	-3440
▁Partisi	-3441
uluyor	-3442
▁evine	-3443
süz	-3444
▁Dar	-3445
▁yasa	-3446
▁banka	-3447
▁Grubu	-3448
memiş	-3449
▁Aynı	-3450
▁siz	-3451
▁soy	-3452
lerince	-3453
▁Kültür	-3454
▁derin	-3455
mediği	-3456
▁ikram	-3457
▁dök	-3458
uzur	-3459
▁yav	-3460
▁helikop	-3461
▁spor	-3462
▁Süleyman	-3463
▁metrekar	-3464
iyeti	-3465
▁2,	-3466
▁etkisiz	-3467
▁eve	-3468
▁Ramazan	-3469
▁Şanlı	-3470
▁Erzurum	-3471
utbol	-3472
▁başarılı	-3473
▁Uluslararası	-3474
▁yağışlı	-3475
▁istif	-3476
▁yağmur	-3477
▁değişiklik	-3478
▁enf	-3479
İYOR	-3480
▁Köy	-3481
▁Mev	-3482
▁diz	-3483
▁olmaya	-3484
▁malz	-3485
AĞ	-3486
▁ölç	-3487
▁görüldü	-3488
uyla	-3489
▁yeri	-3490
▁kavg	-3491
▁büt	-3492
▁değerlendirme	-3493
sinden	-3494
▁Ken	-3495
▁hastanede	-3496
urken	-3497
▁uyuşturucu	-3498
▁numar	-3499
▁merak	-3500
▁yaptıkları	-3501
▁yemek	-3502
▁Akdeniz	-3503
lamaz	-3504
üle	-3505
▁po	-3506
▁olayı	-3507
artesi	-3508
▁part	-3509
▁bizi	-3510
▁kart	-3511
▁süreci	-3512
▁sürdü	-3513
▁salon	-3514
İD	-3515
▁45	-3516
▁Düz	-3517
LI	-3518
--	-3519
▁zaten	-3520
yo	-3521
imde	-3522
▁Demokr	-3523
▁Kaya	-3524
ult	-3525
liğinde	-3526
▁yürüy	-3527
eferan	-3528
▁olacağını	-3529
ültesi	-3530
▁taşıyan	-3531
▁2010	-3532
▁biraz	-3533
▁Çan	-3534
unuz	-3535
▁Bazı	-3536
lip	-3537
▁meslek	-3538
▁öğle	-3539
ED	-3540
▁düşüş	-3541
▁üniversite	-3542
ACAK	-3543
dıktan	-3544
▁tic	-3545
düm	-3546
▁iddiasıyla	-3547
▁Suç	-3548
DU	-3549
▁karay	-3550
mür	-3551
▁birinci	-3552
.4	-3553
▁Kadın	-3554
emin	-3555
▁mar	-3556
▁Per	-3557
▁sahte	-3558
▁Amerika	-3559
çalı	-3560
▁sayesinde	-3561
▁Şirk	-3562
eceğ	-3563
▁tamamen	-3564
▁yaşandı	-3565
▁rahatsız	-3566
şek	-3567
▁3'	-3568
▁kop	-3569
kar	-3570
▁Samsun	-3571
▁cam	-3572
▁ref	-3573
rum	-3574
▁kims	-3575
▁adli	-3576
bakan	-3577
▁dil	-3578
▁içeri	-3579
▁Operasyon	-3580
engin	-3581
▁biç	-3582
▁milli	-3583
nız	-3584
▁Grup	-3585
urfa	-3586
▁Peki	-3587
▁Marmara	-3588
▁paralel	-3589
abzon	-3590
▁vermek	-3591
.00'	-3592
▁gerile	-3593
▁Ege	-3594
▁Kayseri	-3595
elek	-3596
▁mevcut	-3597
unma	-3598
lığa	-3599
▁bundan	-3600
akkale	-3601
▁sab	-3602
utan	-3603
▁adliyeye	-3604
▁belirlenen	-3605
▁düğ	-3606
lardı	-3607
▁kişiyi	-3608
▁Kaynak	-3609
▁ilçesine	-3610
lilik	-3611
fes	-3612
▁yarış	-3613
▁çab	-3614
▁Siyas	-3615
▁ülkem	-3616
▁mis	-3617
paşa	-3618
par	-3619
▁Bunu	-3620
▁ayı	-3621
▁çıkart	-3622
▁teşekkür	-3623
▁Fakültesi	-3624
▁genelinde	-3625
▁fay	-3626
▁Oda	-3627
▁cumhur	-3628
▁Bizim	-3629
▁olduğuna	-3630
▁Hakan	-3631
▁aşağı	-3632
▁iddianam	-3633
▁hazırlanan	-3634
▁oranında	-3635
▁CE	-3636
İYE	-3637
60	-3638
▁mek	-3639
▁sonucunda	-3640
ıyorum	-3641
▁iy	-3642
yum	-3643
▁Üst	-3644
gulan	-3645
onya	-3646
▁otop	-3647
▁geldiğini	-3648
▁kadının	-3649
▁arz	-3650
▁rol	-3651
eydan	-3652
TE	-3653
HY	-3654
▁ıs	-3655
▁denildi	-3656
▁Fakat	-3657
duğunu	-3658
▁İŞ	-3659
laşma	-3660
mediğini	-3661
▁tazminat	-3662
▁kalp	-3663
▁Silah	-3664
▁operasyonu	-3665
▁gidiyor	-3666
▁Li	-3667
▁Şanlıurfa	-3668
▁hatırlat	-3669
lal	-3670
▁Tüm	-3671
▁beklenti	-3672
▁Tabi	-3673
▁canlı	-3674
▁Başbak	-3675
ansı	-3676
tıkları	-3677
▁isten	-3678
▁göç	-3679
▁bal	-3680
▁Güm	-3681
▁rekor	-3682
amak	-3683
▁cinayet	-3684
▁miktar	-3685
▁kimse	-3686
▁öncesi	-3687
▁denetim	-3688
for	-3689
▁ona	-3690
▁ister	-3691
▁başlatıldı	-3692
▁indirim	-3693
memesi	-3694
▁davası	-3695
▁Çetin	-3696
▁İsmail	-3697
▁Sah	-3698
oför	-3699
▁Trabzon	-3700
▁yerleştir	-3701
ıf	-3702
▁İnş	-3703
endik	-3704
▁ediyorum	-3705
▁başkanı	-3706
▁liradan	-3707
▁yalan	-3708
▁olumlu	-3709
▁önümüzdeki	-3710
ğan	-3711
▁şikayet	-3712
▁Mersin	-3713
▁Parçalı	-3714
▁Hakkari	-3715
▁Paralel	-3716
araj	-3717
▁zir	-3718
▁yüzden	-3719
▁Böylece	-3720
▁Albay	-3721
▁normal	-3722
▁firmalar	-3723
▁Mardin	-3724
iliği	-3725
ülent	-3726
▁döndü	-3727
▁etmiş	-3728
▁etmesi	-3729
lerindeki	-3730
larındaki	-3731
▁kuvvetli	-3732
▁MİT	-3733
▁kıy	-3734
▁götürüldü	-3735
▁Amerik	-3736
▁ameliyat	-3737
▁yerli	-3738
▁çap	-3739
sanız	-3740
▁Komisyonu	-3741
ai	-3742
▁Çanakkale	-3743
▁Ordu	-3744
▁ettir	-3745
▁Başbakanı	-3746
slan	-3747
▁Adli	-3748
iydi	-3749
▁paket	-3750
vik	-3751
▁Ham	-3752
lisi	-3753
ışık	-3754
etic	-3755
▁yaşamını	-3756
▁erken	-3757
▁harekete	-3758
▁bebek	-3759
▁Ger	-3760
mit	-3761
▁toprak	-3762
▁durumunda	-3763
▁öldürüldü	-3764
▁topr	-3765
▁jandarma	-3766
▁tip	-3767
yaş	-3768
▁ortalama	-3769
▁kullanılan	-3770
▁tahliye	-3771
▁vardır	-3772
ekon	-3773
▁kapalı	-3774
▁çatışma	-3775
▁Bülent	-3776
▁alışveriş	-3777
AYIN	-3778
▁ilaç	-3779
▁çerçevesinde	-3780
usuna	-3781
aladı	-3782
▁gerekir	-3783
dere	-3784
eyim	-3785
▁edin	-3786
eci	-3787
▁belg	-3788
gr	-3789
▁bugüne	-3790
▁cih	-3791
imize	-3792
▁model	-3793
▁katılım	-3794
celi	-3795
asit	-3796
şu	-3797
ğinin	-3798
.2	-3799
udi	-3800
▁2014	-3801
eceğiz	-3802
▁soğ	-3803
itter	-3804
▁sanayi	-3805
▁Res	-3806
▁kanal	-3807
▁Sen	-3808
▁strat	-3809
liğinin	-3810
▁birim	-3811
▁şirketi	-3812
▁Arap	-3813
yse	-3814
▁Gö	-3815
▁kah	-3816
▁hatta	-3817
▁onay	-3818
▁ekonomi	-3819
▁açılış	-3820
PDY	-3821
▁Boğaz	-3822
imşek	-3823
muyor	-3824
▁Vali	-3825
▁bes	-3826
▁kimlik	-3827
daş	-3828
▁Kanunu	-3829
▁ediyoruz	-3830
larım	-3831
▁Kaç	-3832
▁yatırımcı	-3833
▁örgütün	-3834
▁Komutanı	-3835
bileceğini	-3836
▁belirtilen	-3837
▁helikopter	-3838
▁alma	-3839
▁Tat	-3840
▁kişiye	-3841
▁asıl	-3842
▁of	-3843
▁Müs	-3844
oma	-3845
lamadı	-3846
ğuna	-3847
▁kendini	-3848
▁2012	-3849
▁demokratik	-3850
▁TSK	-3851
1'	-3852
▁32	-3853
▁bitir	-3854
▁yaparak	-3855
▁Ac	-3856
▁geçtiğimiz	-3857
isa	-3858
▁*	-3859
▁aracın	-3860
▁darb	-3861
▁2'	-3862
soy	-3863
▁yüzünden	-3864
▁adres	-3865
isay	-3866
fı	-3867
lığında	-3868
▁Üç	-3869
▁koru	-3870
▁çevir	-3871
▁geçecek	-3872
201	-3873
▁cesedi	-3874
▁yum	-3875
▁Gir	-3876
▁mevki	-3877
▁yıllarda	-3878
iklet	-3879
▁mutlu	-3880
ginç	-3881
▁Jap	-3882
ılır	-3883
▁70	-3884
▁Fa	-3885
şem	-3886
çu	-3887
▁sanatçı	-3888
▁maden	-3889
▁intihar	-3890
lendirme	-3891
▁ade	-3892
▁aralık	-3893
▁Şimşek	-3894
▁İçişleri	-3895
▁Şen	-3896
▁giderek	-3897
▁mec	-3898
▁çağır	-3899
▁2016	-3900
▁sorgu	-3901
AF	-3902
lendiği	-3903
▁80	-3904
▁Mısır	-3905
▁yetki	-3906
▁inşa	-3907
▁Çiçek	-3908
ASI	-3909
▁Bek	-3910
▁Br	-3911
landa	-3912
▁sert	-3913
LAN	-3914
▁işi	-3915
▁hakaret	-3916
▁yönünde	-3917
▁mekt	-3918
▁Ergen	-3919
▁ban	-3920
kaya	-3921
▁Yan	-3922
▁ihtim	-3923
eferandum	-3924
▁dolu	-3925
ÜRK	-3926
▁etme	-3927
▁Bas	-3928
yalı	-3929
▁sap	-3930
areti	-3931
ılarak	-3932
▁çalışması	-3933
lamen	-3934
▁gür	-3935
ağının	-3936
▁kurş	-3937
▁Alınan	-3938
▁VE	-3939
▁yapıldığı	-3940
kon	-3941
▁Kav	-3942
▁Sey	-3943
▁yapma	-3944
nam	-3945
he	-3946
▁patlayıcı	-3947
ildiğini	-3948
▁çıkıyor	-3949
▁orada	-3950
▁Ma	-3951
▁198	-3952
▁deli	-3953
▁geçirdi	-3954
sına	-3955
lığının	-3956
▁evinde	-3957
cının	-3958
maktadır	-3959
▁bulunduğunu	-3960
▁hac	-3961
▁Eğer	-3962
laşık	-3963
▁demokrasi	-3964
lılık	-3965
sü	-3966
eğin	-3967
▁endek	-3968
▁kadro	-3969
▁itiraz	-3970
▁alıp	-3971
▁hesab	-3972
▁nerede	-3973
▁kara	-3974
nan	-3975
▁st	-3976
estor	-3977
▁huzur	-3978
▁Başbakanlık	-3979
leyecek	-3980
▁Oğ	-3981
▁baskı	-3982
▁2013	-3983
aydı	-3984
▁dünyaya	-3985
▁içine	-3986
▁güney	-3987
OM	-3988
▁ap	-3989
▁TV	-3990
▁yapar	-3991
maye	-3992
▁gök	-3993
▁Çavuş	-3994
do	-3995
▁bat	-3996
dine	-3997
▁mül	-3998
▁yasal	-3999
▁İm	-4000
ılmasına	-4001
▁üçüncü	-4002
maat	-4003
cra	-4004
▁kesinti	-4005
▁BİR	-4006
kır	-4007
▁enflasyon	-4008
ukur	-4009
▁Müdürlüğ	-4010
ork	-4011
▁anayasa	-4012
▁teknik	-4013
▁BAŞ	-4014
▁Cen	-4015
▁Çar	-4016
▁Bölgesi	-4017
ulmuş	-4018
▁yerleş	-4019
▁Balık	-4020
▁fon	-4021
▁Cumhuriyeti	-4022
oca	-4023
▁Emek	-4024
▁toplu	-4025
▁taşın	-4026
liyet	-4027
▁fabrik	-4028
▁36	-4029
üstü	-4030
▁vazgeç	-4031
rah	-4032
iyorum	-4033
▁Pat	-4034
▁fayda	-4035
▁yapımı	-4036
▁geçeceği	-4037
bo	-4038
▁sorunu	-4039
▁istiyoruz	-4040
▁katıldığı	-4041
biliyor	-4042
▁üzerindeki	-4043
▁çocuğu	-4044
▁kum	-4045
lanmış	-4046
▁tutar	-4047
▁karak	-4048
▁turizm	-4049
▁balık	-4050
▁Seçim	-4051
▁Fır	-4052
▁Demirtaş	-4053
tıklarını	-4054
sını	-4055
▁gıda	-4056
▁şoför	-4057
▁Piy	-4058
!"	-4059
ılmasını	-4060
▁Savunma	-4061
gari	-4062
▁çoğ	-4063
▁mor	-4064
▁servis	-4065
▁cenaze	-4066
▁Kr	-4067
▁sorum	-4068
.)	-4069
odrum	-4070
▁sığın	-4071
ılım	-4072
▁Müslüm	-4073
▁Pazar	-4074
DAN	-4075
ağın	-4076
▁civarında	-4077
▁kişilerin	-4078
▁hab	-4079
kanın	-4080
CK	-4081
▁ah	-4082
▁memuru	-4083
▁yükseldi	-4084
▁hızla	-4085
▁Han	-4086
▁alanında	-4087
calan	-4088
lenme	-4089
▁Maliye	-4090
▁anlay	-4091
▁Fer	-4092
ÜK	-4093
▁Tabii	-4094
▁yaptığını	-4095
rük	-4096
▁tec	-4097
▁Sa	-4098
▁işe	-4099
▁Yav	-4100
▁toprağa	-4101
ezer	-4102
▁sem	-4103
▁hasar	-4104
▁ekiplerinin	-4105
tek	-4106
▁Harek	-4107
▁altını	-4108
▁dilek	-4109
▁kans	-4110
lenin	-4111
▁eğ	-4112
öbet	-4113
▁YAP	-4114
▁edile	-4115
matı	-4116
lerdeki	-4117
▁Yapı	-4118
▁sakin	-4119
▁bölgeye	-4120
▁33	-4121
ılırken	-4122
▁vek	-4123
▁mezar	-4124
▁Ver	-4125
▁yanına	-4126
RT	-4127
▁toplantısında	-4128
aki	-4129
▁kurulan	-4130
ilot	-4131
bey	-4132
▁AA	-4133
tarı	-4134
▁sayf	-4135
▁sebep	-4136
sas	-4137
▁ayda	-4138
▁başlatılan	-4139
▁komisyon	-4140
lığın	-4141
▁ihbar	-4142
▁Feth	-4143
▁kendilerine	-4144
▁TIR	-4145
bu	-4146
▁makam	-4147
▁tesis	-4148
▁kapasit	-4149
ğrı	-4150
▁"1	-4151
▁yakınları	-4152
▁Men	-4153
▁buluş	-4154
▁olmuş	-4155
▁işletme	-4156
▁uçuş	-4157
▁bilinen	-4158
ürken	-4159
▁teşvik	-4160
ÜZ	-4161
▁sön	-4162
▁tor	-4163
isayar	-4164
▁teknoloji	-4165
▁gerçekleşti	-4166
ahmet	-4167
bil	-4168
LARI	-4169
▁çıkacak	-4170
▁yapmaya	-4171
ndaki	-4172
▁terk	-4173
▁dolandır	-4174
aran	-4175
▁tanık	-4176
▁AY	-4177
▁şok	-4178
▁Özellikle	-4179
▁haft	-4180
.''	-4181
alisyon	-4182
▁fik	-4183
▁Bölge	-4184
▁devletin	-4185
▁muhabir	-4186
▁esnaf	-4187
set	-4188
▁bedel	-4189
gara	-4190
▁benzer	-4191
▁yapmış	-4192
▁çağr	-4193
▁Asya	-4194
▁kısm	-4195
▁arkadaşı	-4196
▁vurgulayan	-4197
▁verilecek	-4198
▁Bür	-4199
▁doğrult	-4200
▁yazar	-4201
▁yalnız	-4202
▁Naz	-4203
▁uğra	-4204
▁ortadan	-4205
▁üyeleri	-4206
brıs	-4207
▁Cam	-4208
▁Millet	-4209
âh	-4210
▁varsa	-4211
iniz	-4212
▁Kıs	-4213
▁ilginç	-4214
▁ederken	-4215
▁DEV	-4216
▁uygulama	-4217
bileceği	-4218
eysel	-4219
▁cami	-4220
▁çocukları	-4221
larımızın	-4222
mey	-4223
ilirken	-4224
▁şikâ	-4225
▁Baykal	-4226
▁THY	-4227
▁çatış	-4228
▁Suriyeli	-4229
▁iade	-4230
▁HAB	-4231
▁ihraç	-4232
ılmaz	-4233
▁gözyaş	-4234
▁zengin	-4235
▁Mete	-4236
▁Turk	-4237
..."	-4238
▁muhalefet	-4239
dikten	-4240
▁ka	-4241
▁dosy	-4242
▁Ür	-4243
▁soruşturması	-4244
▁sıf	-4245
▁ayır	-4246
▁Demirel	-4247
▁koşul	-4248
allah	-4249
▁açıklaması	-4250
▁ifadelerini	-4251
▁sevgili	-4252
▁Işık	-4253
▁Meydan	-4254
▁bilim	-4255
atırım	-4256
kent	-4257
▁se	-4258
▁Hatay	-4259
mesinde	-4260
▁Kahraman	-4261
OL	-4262
UT	-4263
onik	-4264
▁Siv	-4265
▁Öcalan	-4266
İH	-4267
oda	-4268
▁tuz	-4269
▁üs	-4270
▁sonuna	-4271
cilerin	-4272
oya	-4273
ond	-4274
▁gelin	-4275
imin	-4276
▁yolc	-4277
▁detay	-4278
▁doğalgaz	-4279
isar	-4280
▁eser	-4281
▁Tah	-4282
▁bölgesinde	-4283
uar	-4284
▁Sadece	-4285
neğin	-4286
▁kaldığı	-4287
▁düzenlendi	-4288
▁saç	-4289
▁kazandır	-4290
lerimizin	-4291
▁oldukları	-4292
▁Köpr	-4293
leyi	-4294
ilerek	-4295
▁istiyorum	-4296
▁Karar	-4297
▁Ör	-4298
▁krizi	-4299
nci	-4300
▁fiyatları	-4301
▁kıl	-4302
▁Diğer	-4303
▁motor	-4304
ilit	-4305
▁Terörle	-4306
lıklı	-4307
lanarak	-4308
▁oğl	-4309
▁Yaralı	-4310
▁Kazada	-4311
üc	-4312
▁0,	-4313
▁Say	-4314
▁unsur	-4315
▁Vatandaş	-4316
çın	-4317
▁Üs	-4318
▁Kons	-4319
▁çıkardı	-4320
▁sıkış	-4321
▁demiş	-4322
▁sız	-4323
▁edip	-4324
▁adayı	-4325
▁işbirliği	-4326
▁orman	-4327
▁doğum	-4328
sının	-4329
▁aray	-4330
▁Ergenekon	-4331
▁vurguladı	-4332
▁çekili	-4333
enkul	-4334
landığını	-4335
▁açıklamaya	-4336
FETÖ	-4337
tacak	-4338
▁gördük	-4339
makam	-4340
▁Ol	-4341
▁Hükümet	-4342
▁Tunceli	-4343
▁Özal	-4344
▁Hiç	-4345
▁arab	-4346
▁ac	-4347
▁Yurt	-4348
▁görül	-4349
▁olduklarını	-4350
▁bilir	-4351
▁Savaş	-4352
▁takım	-4353
▁Kocaeli	-4354
▁ailesi	-4355
lete	-4356
▁zorun	-4357
▁görülen	-4358
GK	-4359
üny	-4360
obil	-4361
ulduğu	-4362
▁futbol	-4363
ğla	-4364
iktaş	-4365
▁kış	-4366
▁ez	-4367
IKLAYIN	-4368
uman	-4369
▁imha	-4370
▁uygula	-4371
▁dağıt	-4372
▁Valisi	-4373
cileri	-4374
▁olursa	-4375
emeyen	-4376
▁kamp	-4377
▁bırakıldı	-4378
▁GÖR	-4379
ket	-4380
▁400	-4381
▁AV	-4382
ağında	-4383
▁tartışma	-4384
▁halkın	-4385
▁Yer	-4386
▁güc	-4387
ong	-4388
▁gur	-4389
▁girişimi	-4390
▁olacağı	-4391
▁projesi	-4392
▁bağlantı	-4393
▁Kamu	-4394
▁müt	-4395
▁ölen	-4396
▁saatleri	-4397
▁kendisi	-4398
▁kuy	-4399
▁hatt	-4400
▁hakkı	-4401
▁kişiler	-4402
▁protest	-4403
usunu	-4404
▁Kıbrıs	-4405
▁çıkarıldı	-4406
▁1.5	-4407
▁2011'	-4408
▁Far	-4409
keri	-4410
▁bahç	-4411
▁poz	-4412
istik	-4413
▁Şüph	-4414
▁Malat	-4415
▁insanlar	-4416
▁Müz	-4417
▁İST	-4418
omo	-4419
▁Gazet	-4420
▁4.	-4421
IYOR	-4422
ohbet	-4423
▁cenazesi	-4424
▁çök	-4425
za	-4426
▁şaşır	-4427
▁Çank	-4428
▁150	-4429
▁Karay	-4430
▁gösteriyor	-4431
▁Turg	-4432
▁kanun	-4433
▁temin	-4434
▁Uzun	-4435
arya	-4436
esiz	-4437
itesi	-4438
ARA	-4439
▁sayılı	-4440
▁TIKLAYIN	-4441
hat	-4442
ınç	-4443
▁tüketici	-4444
▁endi	-4445
▁buz	-4446
▁pan	-4447
gal	-4448
▁kazandı	-4449
▁Sek	-4450
▁çarptı	-4451
▁Çak	-4452
▁dolaş	-4453
▁Hep	-4454
▁dahi	-4455
▁doğrultusunda	-4456
emen	-4457
▁arttı	-4458
▁olayın	-4459
sit	-4460
▁ekipler	-4461
undaki	-4462
▁kapan	-4463
▁bekleyen	-4464
ron	-4465
▁Acil	-4466
▁kıyı	-4467
▁hâlâ	-4468
öğr	-4469
▁Dağı	-4470
▁yerinden	-4471
▁ilde	-4472
▁imkâ	-4473
▁restor	-4474
ARI	-4475
▁ca	-4476
▁Önce	-4477
▁kaydeden	-4478
▁Po	-4479
▁Ker	-4480
afer	-4481
▁oyuncu	-4482
▁Galat	-4483
▁boşan	-4484
▁Afrika	-4485
▁Ortadoğu	-4486
▁altı	-4487
ğur	-4488
▁Yaklaşık	-4489
▁erte	-4490
▁38	-4491
EB	-4492
▁Ob	-4493
▁alım	-4494
▁mahkemeye	-4495
▁sanı	-4496
▁getirilen	-4497
▁DAEŞ	-4498
▁halka	-4499
alığı	-4500
▁düzenlediği	-4501
ürr	-4502
▁yapılıyor	-4503
▁yaşlı	-4504
▁kurşun	-4505
▁mahk	-4506
▁döviz	-4507
▁hük	-4508
▁malzeme	-4509
▁Et	-4510
alarla	-4511
▁Karab	-4512
▁heyet	-4513
▁itibariyle	-4514
▁çalıştı	-4515
▁doldur	-4516
▁Organ	-4517
▁öğrencisi	-4518
▁söndür	-4519
gre	-4520
▁37	-4521
▁nüfus	-4522
▁meydan	-4523
▁insanların	-4524
YD	-4525
▁Beşiktaş	-4526
ılıp	-4527
▁3,	-4528
endis	-4529
lerimizi	-4530
▁yetkilileri	-4531
ücü	-4532
ıyorlar	-4533
düz	-4534
bek	-4535
elin	-4536
incir	-4537
▁konum	-4538
▁yeterli	-4539
▁büyüklüğ	-4540
med	-4541
▁hayır	-4542
▁reklam	-4543
iber	-4544
.30	-4545
ileş	-4546
▁odak	-4547
steş	-4548
▁istediği	-4549
▁Malatya	-4550
ubu	-4551
▁binlerce	-4552
▁Taksim	-4553
▁Nec	-4554
▁yönetimi	-4555
▁Oysa	-4556
▁Kanun	-4557
▁Elektr	-4558
ELER	-4559
eker	-4560
▁kardeşi	-4561
▁anı	-4562
fendi	-4563
▁tarım	-4564
▁delil	-4565
go	-4566
▁başlıyor	-4567
▁Kadir	-4568
usuf	-4569
▁Muğla	-4570
▁İspan	-4571
▁başlayacak	-4572
▁ET	-4573
▁Orhan	-4574
▁AT	-4575
▁Bayramı	-4576
cinin	-4577
▁maliyet	-4578
dern	-4579
▁Ter	-4580
▁talimat	-4581
▁arka	-4582
▁Bütün	-4583
▁Osmanlı	-4584
siy	-4585
▁Öztürk	-4586
irt	-4587
▁Saldır	-4588
ital	-4589
▁65	-4590
▁İstih	-4591
laştırma	-4592
▁şikâyet	-4593
▁vü	-4594
▁kaçan	-4595
▁İdaresi	-4596
▁şirketin	-4597
▁alınması	-4598
▁polisin	-4599
▁112	-4600
lerken	-4601
▁ticari	-4602
▁Kul	-4603
▁kesi	-4604
siye	-4605
▁Benim	-4606
str	-4607
ersiz	-4608
▁sene	-4609
▁istendi	-4610
▁çalıştığı	-4611
▁istikrar	-4612
▁Çalış	-4613
Al	-4614
▁karşılan	-4615
▁5'	-4616
▁Tekn	-4617
▁savunma	-4618
▁oturan	-4619
▁içindeki	-4620
abiliyor	-4621
▁Artık	-4622
▁seviye	-4623
atur	-4624
enler	-4625
▁bunlar	-4626
Ar	-4627
▁Bodrum	-4628
▁stan	-4629
▁yardımcı	-4630
▁polisi	-4631
▁istifa	-4632
▁gem	-4633
▁köprü	-4634
vi	-4635
▁Fetullahçı	-4636
inç	-4637
▁bilgisayar	-4638
▁haberi	-4639
▁Yaz	-4640
▁Uğur	-4641
ığ	-4642
▁talimatı	-4643
▁Açıklamada	-4644
ımızı	-4645
▁MİL	-4646
▁öldürdü	-4647
?..	-4648
elen	-4649
mayın	-4650
SYK	-4651
▁Muham	-4652
▁tır	-4653
▁Ekonomi	-4654
▁meş	-4655
▁Orgeneral	-4656
iya	-4657
▁Aslan	-4658
▁Yusuf	-4659
▁güçleri	-4660
ock	-4661
layıp	-4662
▁Kart	-4663
▁işte	-4664
▁yakal	-4665
▁eksik	-4666
luğ	-4667
▁saygı	-4668
▁gül	-4669
▁uc	-4670
form	-4671
▁hâkim	-4672
▁memnun	-4673
▁Ermeni	-4674
▁tank	-4675
▁marka	-4676
▁Dön	-4677
▁ekibi	-4678
▁almaya	-4679
ebek	-4680
▁demir	-4681
▁yoktur	-4682
YA	-4683
▁Kaza	-4684
Baş	-4685
likleri	-4686
son	-4687
▁memlek	-4688
▁Eskişehir	-4689
▁mit	-4690
lıkları	-4691
emez	-4692
▁yapacağı	-4693
▁Aş	-4694
▁Mus	-4695
malarını	-4696
▁sürülen	-4697
bat	-4698
amp	-4699
öğretim	-4700
▁ileti	-4701
▁hayal	-4702
▁köyünde	-4703
▁gelerek	-4704
▁desteği	-4705
▁Toplantı	-4706
▁demokras	-4707
▁alınarak	-4708
lenmiş	-4709
▁Yatırım	-4710
aganda	-4711
▁Mem	-4712
amadı	-4713
▁may	-4714
▁Danış	-4715
▁Dairesi	-4716
▁Köprüsü	-4717
▁mesaf	-4718
ürriyet	-4719
ekim	-4720
▁örgütüne	-4721
▁Manisa	-4722
eğini	-4723
muştur	-4724
▁cihaz	-4725
▁çıktığı	-4726
▁alınacak	-4727
▁Var	-4728
general	-4729
oman	-4730
▁konuşma	-4731
▁evin	-4732
▁Bit	-4733
▁gerçe	-4734
▁kenar	-4735
▁İL	-4736
▁stratej	-4737
▁hedi	-4738
▁minibüs	-4739
▁2012'	-4740
ayır	-4741
▁bürokr	-4742
bette	-4743
▁pas	-4744
▁Uzman	-4745
▁imkan	-4746
▁seyir	-4747
▁kaçtı	-4748
▁gözaltı	-4749
▁saldırıda	-4750
üzgar	-4751
▁adeta	-4752
indi	-4753
▁şeyi	-4754
şet	-4755
▁artarak	-4756
ubay	-4757
▁heye	-4758
ıştı	-4759
▁aydın	-4760
40	-4761
iğ	-4762
gah	-4763
▁yur	-4764
▁alkol	-4765
▁gelip	-4766
▁Edir	-4767
adır	-4768
çılık	-4769
▁aracılığı	-4770
▁Kurum	-4771
▁çünkü	-4772
▁tez	-4773
▁öncesinde	-4774
oj	-4775
ite	-4776
▁Fransız	-4777
mal	-4778
▁TÜRK	-4779
ayıp	-4780
latform	-4781
ESİ	-4782
▁Soruştur	-4783
▁İşleri	-4784
opaganda	-4785
▁gördüğü	-4786
eksiyon	-4787
▁yolda	-4788
▁takdir	-4789
▁tabii	-4790
ikat	-4791
▁edildiğini	-4792
▁rej	-4793
ritik	-4794
▁sohbet	-4795
▁55	-4796
▁alındığı	-4797
▁Kandil	-4798
▁hain	-4799
tılı	-4800
YON	-4801
bahçe	-4802
▁Tarım	-4803
EV	-4804
▁aslında	-4805
▁aldığını	-4806
▁42	-4807
▁işadam	-4808
▁kullanan	-4809
▁devreye	-4810
▁Sigor	-4811
▁Metin	-4812
▁Zaman	-4813
▁adını	-4814
▁Yok	-4815
▁prim	-4816
bin	-4817
▁tren	-4818
▁zehir	-4819
▁acil	-4820
▁kural	-4821
▁ikramiye	-4822
▁mali	-4823
▁Yağ	-4824
▁engelli	-4825
ydi	-4826
▁Askeri	-4827
uncu	-4828
▁Sakarya	-4829
▁dediği	-4830
larımızı	-4831
▁mutlak	-4832
yken	-4833
▁Sistem	-4834
▁1'	-4835
▁Kredi	-4836
▁köyü	-4837
▁39	-4838
▁İtalya	-4839
▁kararını	-4840
cusu	-4841
▁birinin	-4842
▁10'	-4843
▁belki	-4844
▁Yeşil	-4845
ruf	-4846
▁oluştu	-4847
tika	-4848
▁Ayşe	-4849
▁asla	-4850
▁bunların	-4851
▁Bo	-4852
▁tel	-4853
▁istihbarat	-4854
etik	-4855
.7	-4856
▁bağımsız	-4857
▁rast	-4858
▁CEO	-4859
▁koydu	-4860
plo	-4861
▁Vakfı	-4862
▁sigort	-4863
▁Yen	-4864
▁Onun	-4865
▁ismi	-4866
▁Fener	-4867
▁Herkes	-4868
▁alanı	-4869
▁onların	-4870
▁açan	-4871
giz	-4872
▁arkasında	-4873
▁işlemleri	-4874
unus	-4875
▁75	-4876
▁görevi	-4877
ess	-4878
▁içi	-4879
▁aşırı	-4880
▁telefonu	-4881
▁Arslan	-4882
▁pilot	-4883
▁dikkate	-4884
▁Obama	-4885
▁Tok	-4886
eliş	-4887
▁dönüşüm	-4888
▁yakalama	-4889
▁maddi	-4890
▁esas	-4891
▁Hukuk	-4892
AMI	-4893
▁şub	-4894
▁Fili	-4895
rin	-4896
▁48	-4897
▁Öyle	-4898
▁İsv	-4899
▁olun	-4900
▁kurtarı	-4901
▁örgütünün	-4902
▁Turizm	-4903
▁90	-4904
▁eşinin	-4905
▁Silahlı	-4906
.8	-4907
ilis	-4908
▁gitmek	-4909
▁Şüpheli	-4910
▁diren	-4911
▁De	-4912
▁patlama	-4913
▁sokağa	-4914
▁Şiş	-4915
▁şeyler	-4916
zer	-4917
▁Re	-4918
oroloji	-4919
▁psik	-4920
▁Yalçın	-4921
▁referandum	-4922
▁koruma	-4923
▁olayla	-4924
▁işyer	-4925
▁Çif	-4926
▁itibarı	-4927
asaray	-4928
▁Olayla	-4929
uat	-4930
▁noktada	-4931
▁propaganda	-4932
▁41	-4933
OBİ	-4934
▁St	-4935
▁görüştü	-4936
ku	-4937
ordin	-4938
liyesi	-4939
gesi	-4940
▁Ala	-4941
▁gelmiş	-4942
▁kem	-4943
▁600	-4944
▁Bakır	-4945
LIK	-4946
▁250	-4947
MA	-4948
▁Gezi	-4949
▁zirv	-4950
cağına	-4951
▁2015'	-4952
▁kullanım	-4953
▁yükseliş	-4954
▁Binali	-4955
lardaki	-4956
▁Yine	-4957
▁sağlamak	-4958
▁nöbet	-4959
▁protesto	-4960
▁Fi	-4961
tuk	-4962
▁onlar	-4963
OT	-4964
▁ith	-4965
ılma	-4966
▁Bing	-4967
▁İt	-4968
ladığını	-4969
yas	-4970
▁sermaye	-4971
diyor	-4972
öp	-4973
▁işç	-4974
miyorum	-4975
▁dolayısıyla	-4976
▁İk	-4977
▁sağlayan	-4978
▁ekiplerince	-4979
İLER	-4980
▁sürücüsü	-4981
▁başkanlık	-4982
▁ilet	-4983
▁çocukların	-4984
▁kendilerini	-4985
▁şi	-4986
▁büny	-4987
▁hastalık	-4988
▁koalisyon	-4989
dev	-4990
▁tac	-4991
yol	-4992
▁Hatta	-4993
▁yavaş	-4994
▁Lis	-4995
▁Yavuz	-4996
▁Mo	-4997
önü	-4998
▁2013'	-4999
▁zih	-5000
cell	-5001
lücü	-5002
▁açtığı	-5003
▁ulaşım	-5004
iti	-5005
▁İnşaat	-5006
▁2014'	-5007
▁Müsteş	-5008
▁uzat	-5009
▁yıldı	-5010
▁kaldırılan	-5011
▁VER	-5012
▁harc	-5013
▁Am	-5014
▁Tuğ	-5015
▁Fatma	-5016
▁Meclisi	-5017
▁Müslüman	-5018
▁yaparken	-5019
▁ism	-5020
▁bilgilere	-5021
▁teröristlerin	-5022
▁ağab	-5023
▁çoğun	-5024
kırı	-5025
▁bunları	-5026
▁süt	-5027
▁alev	-5028
▁Sivas	-5029
▁Dep	-5030
INI	-5031
▁talebi	-5032
▁düzenledi	-5033
yiz	-5034
▁çocuklar	-5035
▁almış	-5036
▁sigara	-5037
▁202	-5038
▁avukatı	-5039
▁BM	-5040
▁2010'	-5041
▁Bunlar	-5042
▁cadde	-5043
▁lüks	-5044
▁kartı	-5045
▁halkı	-5046
▁Ya	-5047
ango	-5048
▁Bakanlar	-5049
eyn	-5050
▁köpek	-5051
▁Rapor	-5052
▁neler	-5053
▁yapım	-5054
▁teb	-5055
dun	-5056
▁kade	-5057
▁IM	-5058
▁kurulu	-5059
▁slo	-5060
.6	-5061
▁Yazı	-5062
▁197	-5063
▁uğraş	-5064
▁Ku	-5065
▁dedik	-5066
ceğim	-5067
maların	-5068
İS	-5069
▁belirledi	-5070
UZ	-5071
alanan	-5072
sef	-5073
▁Çağlayan	-5074
▁elinde	-5075
▁üretimi	-5076
▁kampany	-5077
▁vermeye	-5078
ire	-5079
▁ordu	-5080
ülmesi	-5081
▁hus	-5082
▁Meteoroloji	-5083
ÜŞ	-5084
elal	-5085
ültülü	-5086
▁yürüyüş	-5087
▁merkezinde	-5088
▁Tam	-5089
ibe	-5090
ifre	-5091
▁Barış	-5092
▁döv	-5093
▁kavga	-5094
▁komşu	-5095
▁şer	-5096
▁le	-5097
▁Sır	-5098
▁verir	-5099
ukarı	-5100
ÜL	-5101
▁Adı	-5102
ğinden	-5103
▁Darbe	-5104
maktan	-5105
▁paz	-5106
▁doğrudan	-5107
lediklerini	-5108
▁Med	-5109
▁itiraf	-5110
▁merkezli	-5111
▁arası	-5112
▁Sanat	-5113
▁bağış	-5114
▁Arınç	-5115
▁Piyas	-5116
▁Şehir	-5117
▁4'	-5118
▁süredir	-5119
▁yetiştir	-5120
▁cir	-5121
▁Mez	-5122
▁Anne	-5123
▁vadeli	-5124
ene	-5125
▁kritik	-5126
▁kısı	-5127
▁Bilim	-5128
kları	-5129
cık	-5130
aca	-5131
▁ağaç	-5132
▁Alev	-5133
▁dedim	-5134
....	-5135
raki	-5136
▁laf	-5137
▁sek	-5138
▁YIL	-5139
▁savcılık	-5140
▁temas	-5141
▁Soy	-5142
ğumuz	-5143
lıkla	-5144
▁sayısının	-5145
lament	-5146
▁Edirne	-5147
likte	-5148
▁metro	-5149
▁af	-5150
▁Odası	-5151
one	-5152
▁Galatasaray	-5153
▁evli	-5154
▁soğuk	-5155
▁birik	-5156
▁dakik	-5157
latan	-5158
ADI	-5159
▁İH	-5160
▁Kes	-5161
emedi	-5162
▁dikkati	-5163
▁arkadaşları	-5164
▁herkesin	-5165
İB	-5166
▁Özdemir	-5167
▁hik	-5168
▁Lib	-5169
▁Spor	-5170
▁Haf	-5171
▁Lond	-5172
OLU	-5173
▁IŞ	-5174
▁trafiğe	-5175
▁aykırı	-5176
▁gemi	-5177
▁Üyesi	-5178
▁Amerikan	-5179
▁aram	-5180
isyen	-5181
▁İkinci	-5182
▁kısmı	-5183
▁Ağrı	-5184
ane	-5185
▁Güneydoğu	-5186
▁tanım	-5187
▁irade	-5188
▁York	-5189
▁arazi	-5190
▁DEAŞ	-5191
▁İddiaya	-5192
▁kâr	-5193
fak	-5194
▁.00	-5195
LA	-5196
▁görünce	-5197
▁sorunun	-5198
▁anayas	-5199
▁ülkeye	-5200
▁ER	-5201
izasyon	-5202
yecek	-5203
▁kok	-5204
▁Emine	-5205
▁Gazetesi	-5206
▁(5	-5207
▁olmasını	-5208
içi	-5209
▁isabet	-5210
▁karayol	-5211
▁işadamı	-5212
amayan	-5213
▁saniye	-5214
▁adamı	-5215
▁Dağ	-5216
mesinden	-5217
ayiş	-5218
arım	-5219
▁teröristler	-5220
sek	-5221
stik	-5222
▁beklenen	-5223
imar	-5224
enilen	-5225
cer	-5226
▁İyi	-5227
▁fatur	-5228
▁duvar	-5229
▁gecesi	-5230
▁AÇ	-5231
▁cezaevine	-5232
▁göm	-5233
estiv	-5234
▁Bingöl	-5235
▁sis	-5236
İn	-5237
▁Cemil	-5238
▁Hizmet	-5239
▁HSYK	-5240
▁olmalı	-5241
▁etkisiyle	-5242
rimenkul	-5243
lediğini	-5244
▁belirtiliyor	-5245
▁hoş	-5246
oyu	-5247
alardan	-5248
▁batı	-5249
▁itibarıyla	-5250
ruklu	-5251
PG	-5252
▁sürecinde	-5253
▁işin	-5254
▁sorularını	-5255
▁HAV	-5256
▁KOBİ	-5257
blem	-5258
ımızın	-5259
▁Bayrak	-5260
▁Gıda	-5261
▁gram	-5262
▁edeceğiz	-5263
▁sur	-5264
▁dönemin	-5265
▁re	-5266
▁gerçekten	-5267
attin	-5268
▁sağlayacak	-5269
▁renk	-5270
▁otomobilin	-5271
latı	-5272
▁keş	-5273
.9	-5274
ükle	-5275
alif	-5276
▁başı	-5277
▁Faruk	-5278
▁edilmiş	-5279
▁Tas	-5280
▁yerini	-5281
▁yapıldığını	-5282
▁halen	-5283
▁inanıyor	-5284
▁çıkma	-5285
▁yürür	-5286
▁çıkarak	-5287
hi	-5288
cin	-5289
ECEK	-5290
▁IMF	-5291
▁Turkcell	-5292
liam	-5293
▁Akın	-5294
▁Nih	-5295
▁Tarih	-5296
▁usul	-5297
▁korun	-5298
▁değeri	-5299
akere	-5300
▁bağır	-5301
ğilim	-5302
▁olayda	-5303
işim	-5304
10	-5305
omotiv	-5306
▁Denizli	-5307
▁Siirt	-5308
▁Dünyanın	-5309
▁istis	-5310
▁ülkeler	-5311
ever	-5312
alandır	-5313
▁süreli	-5314
▁dizi	-5315
▁çıkarılan	-5316
▁alty	-5317
lıklar	-5318
▁azalt	-5319
usunun	-5320
▁ayrıldı	-5321
▁Cin	-5322
▁icra	-5323
▁şarkı	-5324
▁Sekret	-5325
lerim	-5326
▁dönüştür	-5327
▁hırsız	-5328
UK	-5329
▁Kars	-5330
dıköy	-5331
▁sonraki	-5332
▁47	-5333
▁satışa	-5334
▁dokun	-5335
▁vurdu	-5336
▁Londra	-5337
▁ihtiyacı	-5338
▁kişiden	-5339
iyatro	-5340
osiklet	-5341
▁fer	-5342
EZ	-5343
tiğimiz	-5344
▁test	-5345
▁2009'	-5346
▁vekil	-5347
EÇ	-5348
esir	-5349
yoz	-5350
▁4,	-5351
lendiğini	-5352
▁İstihbarat	-5353
▁GÜN	-5354
larken	-5355
▁müzik	-5356
▁gerçekleşen	-5357
▁boyut	-5358
lamış	-5359
▁çatı	-5360
▁52	-5361
▁etkisi	-5362
▁hediye	-5363
▁heyeti	-5364
▁umut	-5365
▁vermiş	-5366
▁katlı	-5367
yım	-5368
▁GÖ	-5369
▁Meydanı	-5370
▁Plan	-5371
reti	-5372
▁danış	-5373
▁Ardından	-5374
▁Tor	-5375
adı	-5376
▁aracılığıyla	-5377
▁Mahmut	-5378
▁Cey	-5379
▁Şirket	-5380
tanın	-5381
varı	-5382
▁sektörü	-5383
▁başk	-5384
▁yıllar	-5385
▁beyan	-5386
▁bölgenin	-5387
gat	-5388
▁firma	-5389
ses	-5390
▁IŞİD	-5391
▁olmasına	-5392
▁For	-5393
▁size	-5394
ahya	-5395
▁yürü	-5396
▁sağlan	-5397
▁Nev	-5398
▁süreçte	-5399
MK	-5400
▁cumhurbaş	-5401
ATO	-5402
zat	-5403
lerimize	-5404
▁toplantısı	-5405
▁bütçe	-5406
▁Bozdağ	-5407
▁incelem	-5408
▁44	-5409
▁çeyrek	-5410
▁gönül	-5411
▁sözleş	-5412
▁verilmesi	-5413
▁ışık	-5414
ğından	-5415
INDA	-5416
▁Parkı	-5417
▁verdiğini	-5418
▁programı	-5419
80	-5420
▁Ha	-5421
ende	-5422
yacak	-5423
▁tanın	-5424
uzu	-5425
▁In	-5426
▁ilg	-5427
▁Resmi	-5428
▁bıraktı	-5429
▁gidecek	-5430
forman	-5431
▁Konseyi	-5432
INA	-5433
▁Erdem	-5434
▁Özgür	-5435
▁onları	-5436
DIR	-5437
erj	-5438
ımıza	-5439
▁Batman	-5440
▁eleştiri	-5441
ındır	-5442
▁oldukça	-5443
SİAD	-5444
▁denize	-5445
▁güneş	-5446
eydi	-5447
▁tüketim	-5448
▁çocuğun	-5449
▁istediğini	-5450
▁kalab	-5451
kun	-5452
▁başlan	-5453
▁koc	-5454
▁tal	-5455
▁zincir	-5456
▁algı	-5457
▁Kab	-5458
▁nam	-5459
5)	-5460
▁gr	-5461
elt	-5462
▁bulan	-5463
inal	-5464
▁nedeni	-5465
▁Elektrik	-5466
emiz	-5467
▁Euro	-5468
eticisi	-5469
▁alır	-5470
▁özür	-5471
▁falan	-5472
ulmaz	-5473
lamanın	-5474
▁inf	-5475
çiler	-5476
imli	-5477
▁ihtiyac	-5478
▁ülkelerin	-5479
▁anal	-5480
▁GEL	-5481
▁eğit	-5482
▁Güneş	-5483
liyoruz	-5484
▁dışına	-5485
▁dük	-5486
▁Ünlü	-5487
▁Cuma	-5488
ina	-5489
▁Hollanda	-5490
▁iletişim	-5491
▁Balıkesir	-5492
▁yönetimindeki	-5493
▁kanı	-5494
▁geçerli	-5495
▁Yetkili	-5496
▁paylaşım	-5497
▁Mas	-5498
▁mutlaka	-5499
onun	-5500
▁gereği	-5501
▁geçici	-5502
rab	-5503
1,	-5504
▁49	-5505
▁biçimde	-5506
▁konser	-5507
▁Emre	-5508
▁görmek	-5509
▁Teş	-5510
▁vermesi	-5511
pınar	-5512
mızın	-5513
yıl	-5514
LERİ	-5515
▁düşünce	-5516
vil	-5517
▁karşılı	-5518
ülecek	-5519
ılmıştı	-5520
matik	-5521
▁Bors	-5522
▁Yunan	-5523
▁Çalışma	-5524
dukları	-5525
▁karşıya	-5526
▁sigorta	-5527
▁ekib	-5528
▁Tekin	-5529
rü	-5530
▁kod	-5531
▁Savcı	-5532
▁payı	-5533
▁kanser	-5534
▁tasarruf	-5535
▁Sil	-5536
▁Alan	-5537
▁Çukur	-5538
amıyor	-5539
▁hassas	-5540
▁değerli	-5541
-3	-5542
▁Salih	-5543
▁hasta	-5544
afak	-5545
▁Fırat	-5546
▁istemiyle	-5547
▁ihlal	-5548
lüğe	-5549
yüz	-5550
▁2009	-5551
▁mus	-5552
vekili	-5553
ınıyor	-5554
lerdi	-5555
▁beyaz	-5556
▁gittiği	-5557
▁açıklandı	-5558
▁maç	-5559
▁baraj	-5560
▁gidip	-5561
▁rekabet	-5562
ırh	-5563
▁tık	-5564
müyor	-5565
▁finansal	-5566
▁cinsel	-5567
▁Güler	-5568
▁Piyango	-5569
Er	-5570
▁kimliği	-5571
▁Kaymakam	-5572
▁polisler	-5573
▁olanlar	-5574
▁mesajı	-5575
▁ima	-5576
▁Met	-5577
elinin	-5578
▁yakından	-5579
▁ED	-5580
▁uyruklu	-5581
▁Baba	-5582
▁BİN	-5583
▁reform	-5584
▁Rum	-5585
▁Amir	-5586
▁oyla	-5587
eğen	-5588
ğiniz	-5589
▁apart	-5590
▁kurban	-5591
▁43	-5592
▁lok	-5593
▁yoksa	-5594
▁iler	-5595
▁Küt	-5596
ğum	-5597
▁aktif	-5598
IC	-5599
▁Mak	-5600
▁Cami	-5601
▁Yaşar	-5602
mesin	-5603
▁Feder	-5604
▁sağlıklı	-5605
▁eşit	-5606
▁vererek	-5607
▁etraf	-5608
▁dönemi	-5609
▁yürüten	-5610
▁Valiliği	-5611
memek	-5612
aranti	-5613
▁uyan	-5614
▁Hayat	-5615
▁ifadesini	-5616
▁istikamet	-5617
iri	-5618
▁çöp	-5619
▁standar	-5620
iyer	-5621
▁Tele	-5622
▁sürpr	-5623
▁niye	-5624
▁mektup	-5625
▁kilogram	-5626
▁Paris	-5627
▁dalg	-5628
▁güne	-5629
▁İspanya	-5630
▁yönlendir	-5631
ham	-5632
idin	-5633
tesi	-5634
▁düşman	-5635
▁takv	-5636
▁toplanan	-5637
rafik	-5638
▁kırsal	-5639
oluk	-5640
▁yararlan	-5641
▁sözlerine	-5642
▁Şişli	-5643
15	-5644
layısıyla	-5645
▁anlaşma	-5646
TA	-5647
▁santr	-5648
▁tuttu	-5649
ons	-5650
▁Çankaya	-5651
▁Tut	-5652
omp	-5653
▁yolunda	-5654
▁zamanlı	-5655
▁kilit	-5656
▁yasağı	-5657
▁bankacılık	-5658
ANI	-5659
alet	-5660
ıza	-5661
▁düzenlem	-5662
▁Cev	-5663
▁serg	-5664
ayım	-5665
eğiyle	-5666
▁bilgiler	-5667
▁teşeb	-5668
▁aran	-5669
▁Organize	-5670
▁ters	-5671
▁artan	-5672
dr	-5673
▁sez	-5674
▁Sabancı	-5675
▁Kör	-5676
▁sil	-5677
▁yitirdi	-5678
▁Büyükelç	-5679
▁baskın	-5680
▁TEM	-5681
▁Cih	-5682
▁Ortak	-5683
▁sebebiyle	-5684
dılar	-5685
▁46	-5686
▁bağlan	-5687
▁İhra	-5688
lerdir	-5689
▁dey	-5690
ayıf	-5691
▁kov	-5692
akistan	-5693
kınma	-5694
▁EN	-5695
▁İN	-5696
▁mekan	-5697
▁artışla	-5698
▁ettikleri	-5699
▁onlara	-5700
▁cezasına	-5701
uyorum	-5702
İş	-5703
▁yoktu	-5704
▁cemaat	-5705
▁kaybol	-5706
umak	-5707
▁Örneğin	-5708
▁AVM	-5709
▁54	-5710
▁VAR	-5711
▁verme	-5712
▁performan	-5713
natif	-5714
▁İnce	-5715
▁PYD	-5716
▁lise	-5717
▁Konut	-5718
▁ini	-5719
▁teröristin	-5720
▁makin	-5721
▁başladığı	-5722
iyorlar	-5723
▁ilerle	-5724
▁Çor	-5725
▁Türkçe	-5726
▁sordu	-5727
▁çekiliş	-5728
▁Turgut	-5729
▁yatak	-5730
▁Avcı	-5731
▁Japonya	-5732
▁şark	-5733
avüz	-5734
▁Yayın	-5735
ileceği	-5736
▁Kadıköy	-5737
▁zan	-5738
▁otopsi	-5739
▁politika	-5740
▁yakalanan	-5741
▁NATO	-5742
▁problem	-5743
İstanbul	-5744
uyoruz	-5745
▁doları	-5746
▁Hakim	-5747
▁Hürriyet	-5748
▁ucuz	-5749
▁yağışı	-5750
▁Okul	-5751
▁redde	-5752
▁özgürlük	-5753
▁olağan	-5754
▁görevlisi	-5755
▁toplantıda	-5756
tüğü	-5757
▁hükümeti	-5758
▁seyahat	-5759
▁çalışmalarını	-5760
▁Ela	-5761
▁taksi	-5762
▁fi	-5763
▁Öğren	-5764
itap	-5765
▁dinleme	-5766
▁Araç	-5767
▁Değ	-5768
▁Günü	-5769
▁daire	-5770
▁metrekare	-5771
arlığı	-5772
▁Orman	-5773
▁cinay	-5774
▁görevini	-5775
ikli	-5776
▁bölücü	-5777
▁Fik	-5778
ice	-5779
ilmesini	-5780
ahh	-5781
ilenin	-5782
▁bilgileri	-5783
▁şartı	-5784
larımıza	-5785
▁sektöründe	-5786
▁uğur	-5787
▁milletin	-5788
▁yükselt	-5789
▁önceden	-5790
mamış	-5791
▁Serv	-5792
▁davanın	-5793
▁kazanan	-5794
alarından	-5795
▁zorunlu	-5796
▁raporu	-5797
▁uçağı	-5798
▁olmayacak	-5799
70	-5800
▁Köş	-5801
▁Yür	-5802
▁coğraf	-5803
▁şiş	-5804
▁Cezaevi	-5805
▁BU	-5806
▁Kilis	-5807
▁mobil	-5808
▁tüfek	-5809
icdan	-5810
▁Ban	-5811
▁nitelik	-5812
▁saatlerinden	-5813
▁yaptıklarını	-5814
▁Ark	-5815
▁Böl	-5816
▁UY	-5817
▁Halil	-5818
▁sahib	-5819
▁ithal	-5820
ALAR	-5821
▁ettiklerini	-5822
▁kırmızı	-5823
▁Projesi	-5824
▁iyileş	-5825
▁HABERİN	-5826
tına	-5827
6)	-5828
▁çay	-5829
▁tane	-5830
▁sizin	-5831
▁geçirilen	-5832
▁Birleş	-5833
▁reh	-5834
▁miting	-5835
mıza	-5836
▁gücü	-5837
DD	-5838
▁akadem	-5839
▁AŞ	-5840
▁Çevre	-5841
▁vef	-5842
▁Siz	-5843
▁niyet	-5844
▁yerden	-5845
subay	-5846
▁bölümü	-5847
HK	-5848
leyerek	-5849
▁merkezine	-5850
SI	-5851
▁Dolayısıyla	-5852
hine	-5853
▁tamamlandı	-5854
▁ailesinin	-5855
▁iktid	-5856
aryak	-5857
▁öğretim	-5858
▁kimsenin	-5859
▁diplo	-5860
▁ithalat	-5861
▁Güzel	-5862
TK	-5863
▁çarptır	-5864
▁anlamda	-5865
zığ	-5866
ünüz	-5867
▁kullanarak	-5868
oto	-5869
▁Ch	-5870
▁yıldan	-5871
▁Daire	-5872
utin	-5873
▁tamamlan	-5874
▁ilçesindeki	-5875
▁Zaten	-5876
ılmak	-5877
▁sinir	-5878
leyici	-5879
çü	-5880
▁kıya	-5881
ükleer	-5882
▁fel	-5883
▁grubu	-5884
▁görevlendir	-5885
▁Bundan	-5886
▁ib	-5887
▁endeksi	-5888
▁harit	-5889
▁ifadesi	-5890
seniz	-5891
▁karşısına	-5892
▁alması	-5893
▁hamile	-5894
OKİ	-5895
ezil	-5896
adet	-5897
▁Bilgi	-5898
▁gazetesi	-5899
▁medyada	-5900
▁çekiyor	-5901
▁saf	-5902
▁uygulaması	-5903
▁davasında	-5904
ray	-5905
▁gönderdi	-5906
▁üretici	-5907
▁Beyoğlu	-5908
üntü	-5909
maraş	-5910
çılar	-5911
▁sahn	-5912
▁Adnan	-5913
▁eğlen	-5914
ilme	-5915
illa	-5916
▁satı	-5917
▁kazada	-5918
▁yaşıyor	-5919
▁Fethullah	-5920
ağından	-5921
▁sp	-5922
gazi	-5923
▁Kent	-5924
ktan	-5925
▁motosiklet	-5926
▁ikna	-5927
ayacak	-5928
▁Bakırköy	-5929
8)	-5930
▁Selah	-5931
ileceğini	-5932
▁seçmen	-5933
▁yapması	-5934
▁key	-5935
▁Turan	-5936
▁istasyon	-5937
sem	-5938
OĞU	-5939
▁belde	-5940
▁Çek	-5941
▁dönen	-5942
▁sahne	-5943
▁girdiği	-5944
▁Arda	-5945
▁yaşadı	-5946
▁köş	-5947
ilmesine	-5948
▁dam	-5949
▁getirdiği	-5950
diniz	-5951
aliman	-5952
▁Suudi	-5953
▁gazetecilerin	-5954
akat	-5955
▁maddesi	-5956
▁güvenliği	-5957
İST	-5958
▁öğrendi	-5959
▁sonuçları	-5960
▁Özkan	-5961
▁terörle	-5962
▁askerlik	-5963
▁partinin	-5964
▁ÖN	-5965
▁Emin	-5966
▁hala	-5967
▁Neden	-5968
7)	-5969
▁düşünüyorum	-5970
▁ÇIK	-5971
şak	-5972
En	-5973
MS	-5974
afaz	-5975
ampiyon	-5976
▁Bekir	-5977
▁yerlerde	-5978
▁Eki	-5979
▁Deprem	-5980
▁Tekir	-5981
▁çadır	-5982
ularak	-5983
ırhlı	-5984
▁yüklü	-5985
▁geriledi	-5986
▁Hayvan	-5987
▁süresi	-5988
▁Kartal	-5989
▁Asker	-5990
▁MÜ	-5991
▁güz	-5992
▁gittik	-5993
▁güçlendir	-5994
lılar	-5995
OS	-5996
lenerek	-5997
▁Marmar	-5998
▁anlamına	-5999
▁Kenan	-6000
▁birden	-6001
akende	-6002
▁sahil	-6003
incan	-6004
▁kalit	-6005
bal	-6006
ebbet	-6007
▁Kahramanmaraş	-6008
enek	-6009
▁Paşa	-6010
▁kaps	-6011
özüm	-6012
▁Kış	-6013
3,	-6014
üme	-6015
▁telefonla	-6016
',	-6017
ıştır	-6018
TC	-6019
▁müj	-6020
▁kızın	-6021
ko	-6022
işan	-6023
▁Hacı	-6024
▁imam	-6025
izre	-6026
▁196	-6027
▁fiş	-6028
▁sıfır	-6029
▁tör	-6030
▁Esen	-6031
▁okun	-6032
▁cüm	-6033
ildik	-6034
istler	-6035
▁sorumluluk	-6036
▁zamanla	-6037
▁vatandaşın	-6038
dışı	-6039
▁düğün	-6040
▁2017	-6041
▁İpek	-6042
▁Avu	-6043
▁ihbarı	-6044
stin	-6045
▁Rize	-6046
▁Tim	-6047
▁Lim	-6048
▁nik	-6049
▁Cengiz	-6050
▁Finans	-6051
ou	-6052
▁gelmesi	-6053
▁tipi	-6054
▁Aj	-6055
▁davada	-6056
luluğu	-6057
▁Elazığ	-6058
▁tabanc	-6059
▁ekran	-6060
umartesi	-6061
talay	-6062
▁yarı	-6063
▁Çift	-6064
▁Evet	-6065
▁HAVA	-6066
▁Bakanlık	-6067
ettin	-6068
ongul	-6069
▁gurur	-6070
▁rezer	-6071
▁Gel	-6072
suzluk	-6073
▁eur	-6074
tıktan	-6075
▁değişikliği	-6076
▁Kaçak	-6077
▁doğu	-6078
▁harca	-6079
onguldak	-6080
▁Teknoloji	-6081
▁savcılı	-6082
▁izledi	-6083
▁Tekirdağ	-6084
▁bölgedeki	-6085
elçuk	-6086
▁gündür	-6087
▁parayı	-6088
tiş	-6089
lamaları	-6090
deres	-6091
▁sözleri	-6092
▁olacaktır	-6093
-4	-6094
▁potan	-6095
▁değişim	-6096
▁Bitlis	-6097
2)	-6098
▁rad	-6099
▁faci	-6100
▁Ünal	-6101
▁Gözaltına	-6102
▁20'	-6103
ektörü	-6104
▁alana	-6105
▁adalet	-6106
▁dikkatli	-6107
▁projenin	-6108
rağı	-6109
▁Program	-6110
▁İşlet	-6111
6,	-6112
▁Nus	-6113
etleri	-6114
▁Boğaziçi	-6115
▁Hastanesine	-6116
iği	-6117
▁taksit	-6118
▁İr	-6119
umcu	-6120
▁anlayış	-6121
▁eşini	-6122
▁öğrenciler	-6123
unlar	-6124
▁kapsamda	-6125
▁sözleşme	-6126
aryakıt	-6127
▁Libya	-6128
▁yarım	-6129
▁bina	-6130
▁milletvekilleri	-6131
▁söyleyerek	-6132
▁Aziz	-6133
▁irti	-6134
liğiyle	-6135
▁Şubesi	-6136
tığımız	-6137
her	-6138
▁Onlar	-6139
▁depo	-6140
▁Selim	-6141
▁teknoloj	-6142
▁Ende	-6143
ulacak	-6144
▁Doç	-6145
▁Sinan	-6146
▁mensubu	-6147
▁Hazine	-6148
saydı	-6149
lının	-6150
▁ocak	-6151
▁haklı	-6152
▁SON	-6153
▁Kol	-6154
▁Şem	-6155
▁İhsan	-6156
▁şube	-6157
▁imkân	-6158
▁hazırlık	-6159
ilmişti	-6160
▁Çavuşoğlu	-6161
▁vücu	-6162
▁müebbet	-6163
▁başından	-6164
▁edilerek	-6165
▁önde	-6166
▁evden	-6167
▁Selçuk	-6168
▁konuldu	-6169
▁hükümetin	-6170
2,	-6171
malıdır	-6172
.0	-6173
▁Köyü	-6174
▁medy	-6175
▁Lev	-6176
▁Atalay	-6177
nce	-6178
▁insanın	-6179
mece	-6180
▁Fil	-6181
▁Görüş	-6182
▁Otomob	-6183
aketi	-6184
▁harekat	-6185
▁2016'	-6186
stit	-6187
▁Koz	-6188
▁büyüy	-6189
▁endişe	-6190
▁Mek	-6191
▁zayıf	-6192
▁anında	-6193
▁Danıştay	-6194
▁Is	-6195
ünce	-6196
▁Dir	-6197
▁köp	-6198
▁Arabi	-6199
com	-6200
okol	-6201
▁fakat	-6202
▁taşıma	-6203
▁evi	-6204
iliv	-6205
▁durumunun	-6206
▁işlemlerinin	-6207
▁çıkması	-6208
▁açıklamalarda	-6209
▁sürpriz	-6210
yaman	-6211
▁Azer	-6212
▁çıkarı	-6213
▁sim	-6214
▁sözde	-6215
▁gelince	-6216
▁Mark	-6217
▁sürüc	-6218
▁Zonguldak	-6219
▁trans	-6220
▁içeren	-6221
▁Sigorta	-6222
▁öldürül	-6223
▁dönemine	-6224
▁Sarayı	-6225
▁olmuştu	-6226
▁51	-6227
▁fikir	-6228
▁İhracat	-6229
kil	-6230
▁sektörünün	-6231
yat	-6232
ilmiştir	-6233
▁heyecan	-6234
▁kavuş	-6235
▁kavram	-6236
▁parçalı	-6237
oket	-6238
▁Düzen	-6239
ğrul	-6240
ALI	-6241
▁şans	-6242
▁Cizre	-6243
▁Camisi	-6244
▁mevsim	-6245
▁Ap	-6246
ımda	-6247
▁Cer	-6248
kenti	-6249
▁geçiren	-6250
book	-6251
UŞ	-6252
▁silahla	-6253
▁ulaştır	-6254
AÇ	-6255
ME	-6256
tük	-6257
▁ambulansla	-6258
rgü	-6259
▁etmişti	-6260
▁sözü	-6261
müştü	-6262
▁katil	-6263
▁Asayiş	-6264
car	-6265
▁aldık	-6266
▁bayrak	-6267
▁Ödül	-6268
▁bulundur	-6269
▁gürültülü	-6270
▁geçiyor	-6271
▁Menderes	-6272
▁DEĞ	-6273
▁ekledi	-6274
▁viz	-6275
▁hayati	-6276
8,	-6277
▁yıldız	-6278
▁yaşandığı	-6279
▁gönderilen	-6280
4,	-6281
▁Gümrük	-6282
▁Selahattin	-6283
lob	-6284
liğinden	-6285
▁Siyaset	-6286
▁aj	-6287
25	-6288
acan	-6289
▁sandık	-6290
▁Göl	-6291
şembe	-6292
▁sürüldü	-6293
▁sürdürüyor	-6294
isel	-6295
▁Sel	-6296
▁şef	-6297
▁insanları	-6298
▁kendisinin	-6299
akkabı	-6300
▁sergi	-6301
▁profes	-6302
▁boyu	-6303
▁Erol	-6304
EH	-6305
ena	-6306
Yeni	-6307
▁gecik	-6308
ADOLU	-6309
▁Yü	-6310
▁nes	-6311
▁Sat	-6312
▁skan	-6313
▁Endek	-6314
▁akıllı	-6315
▁benzeri	-6316
memiz	-6317
▁Zanlı	-6318
▁kurtarma	-6319
▁Hır	-6320
▁piyasada	-6321
▁Arabistan	-6322
▁idari	-6323
▁53	-6324
medim	-6325
▁muhalif	-6326
▁duyurdu	-6327
▁başbakan	-6328
▁bulunması	-6329
baycan	-6330
▁komut	-6331
▁kahv	-6332
▁DEVAMI	-6333
▁km	-6334
▁Esad	-6335
▁öğrenilen	-6336
▁Boy	-6337
▁toplumsal	-6338
▁Hey	-6339
▁Sınır	-6340
▁yedi	-6341
▁Tatlı	-6342
▁Başkanvekili	-6343
▁askerin	-6344
▁Çat	-6345
abileceği	-6346
stil	-6347
▁gar	-6348
▁akrab	-6349
▁tecavüz	-6350
▁Katar	-6351
▁hayatı	-6352
▁çekildi	-6353
▁ortada	-6354
▁ANADOLU	-6355
7,	-6356
▁ettim	-6357
▁karıştır	-6358
▁rö	-6359
▁pen	-6360
ebilecek	-6361
anlık	-6362
▁elektronik	-6363
tın	-6364
alarak	-6365
▁tutan	-6366
▁vurgulan	-6367
▁yayımlanan	-6368
▁tarif	-6369
-5	-6370
▁morg	-6371
▁olmadan	-6372
▁eşy	-6373
▁suik	-6374
▁yakalanması	-6375
şen	-6376
▁Gerçek	-6377
▁Balyoz	-6378
▁ülkeleri	-6379
▁yukarı	-6380
▁avan	-6381
▁subay	-6382
▁yönündeki	-6383
▁Gümüş	-6384
▁hattı	-6385
ilek	-6386
3)	-6387
ÜY	-6388
▁sine	-6389
▁enerj	-6390
ladıkları	-6391
▁ürünleri	-6392
▁keli	-6393
▁Savcısı	-6394
▁oyna	-6395
▁hizmeti	-6396
LİK	-6397
▁gergin	-6398
▁gelişmeler	-6399
▁Nihat	-6400
▁makine	-6401
teş	-6402
▁Gön	-6403
▁insanı	-6404
▁binanın	-6405
▁aşa	-6406
▁ifadeleri	-6407
▁Topbaş	-6408
▁çalışmalarına	-6409
▁50'	-6410
gemen	-6411
▁verilerine	-6412
▁elim	-6413
etiyle	-6414
usur	-6415
▁mühim	-6416
▁Suçlarla	-6417
▁alter	-6418
▁tasarım	-6419
▁Petrol	-6420
▁hazırladığı	-6421
▁2.5	-6422
uku	-6423
▁deng	-6424
▁atılan	-6425
▁güm	-6426
▁YAR	-6427
▁tutuklanan	-6428
SS	-6429
▁bombalı	-6430
▁çıktığını	-6431
▁alternatif	-6432
▁kadınların	-6433
▁piyasa	-6434
▁operasyonlarda	-6435
▁Kısa	-6436
▁satışı	-6437
▁Te	-6438
▁kalem	-6439
▁KUR	-6440
▁modern	-6441
▁mür	-6442
▁beden	-6443
▁girecek	-6444
cebook	-6445
▁lisan	-6446
elli	-6447
▁borc	-6448
▁800	-6449
▁Özcan	-6450
▁ifadesinde	-6451
cz	-6452
▁yılının	-6453
▁anlatıyor	-6454
▁hedefi	-6455
▁yazdığı	-6456
▁Saat	-6457
iter	-6458
▁Kızı	-6459
▁değin	-6460
ger	-6461
▁mühendis	-6462
▁KCK	-6463
ılmasının	-6464
mamak	-6465
▁Bolu	-6466
▁Önceki	-6467
▁isimler	-6468
▁sürdürdü	-6469
alesef	-6470
▁Yazıcı	-6471
▁aşk	-6472
▁ölçü	-6473
▁Başsavcılı	-6474
1)	-6475
▁kurtul	-6476
Bur	-6477
▁120	-6478
▁Avuk	-6479
AYI	-6480
va	-6481
▁tedavisi	-6482
▁Hil	-6483
▁bekliyoruz	-6484
kale	-6485
▁kadını	-6486
▁cezalandır	-6487
▁tutuklama	-6488
▁Düş	-6489
▁Uç	-6490
▁görevlileri	-6491
▁İnönü	-6492
▁yapacağız	-6493
9,	-6494
▁sürdüğü	-6495
adir	-6496
▁bask	-6497
▁Zafer	-6498
lus	-6499
▁teşebbüs	-6500
▁Park	-6501
▁Yönet	-6502
▁kendine	-6503
▁yıllardır	-6504
Dev	-6505
▁ihtimal	-6506
▁meselesi	-6507
▁ekiplerine	-6508
amış	-6509
▁hüc	-6510
duklarını	-6511
▁gerekçe	-6512
9)	-6513
▁iken	-6514
▁teşki	-6515
▁81	-6516
▁teşh	-6517
▁Adıyaman	-6518
ĞI	-6519
▁sürük	-6520
ladıklarını	-6521
▁açıklan	-6522
▁piş	-6523
▁çıkıp	-6524
udu	-6525
lobal	-6526
▁YÖ	-6527
▁Aslında	-6528
▁aklı	-6529
▁ettiler	-6530
▁geleceğ	-6531
▁Sulh	-6532
meyin	-6533
▁dosya	-6534
▁Bana	-6535
▁Afyon	-6536
Öz	-6537
▁ide	-6538
şamba	-6539
▁standart	-6540
▁Vek	-6541
ılmaya	-6542
▁çeyre	-6543
ILDI	-6544
yurt	-6545
stur	-6546
▁Sez	-6547
▁hakkındaki	-6548
▁İsmet	-6549
▁Sarıgül	-6550
▁Koc	-6551
lemez	-6552
▁belirlenemeyen	-6553
▁yakınlarında	-6554
▁Gar	-6555
▁müdürü	-6556
▁başlandı	-6557
▁şirketlerin	-6558
jital	-6559
▁yapıyoruz	-6560
▁Muş	-6561
▁Ulaştırma	-6562
eğe	-6563
▁Okulu	-6564
▁oyunu	-6565
▁birbirine	-6566
▁kadınlar	-6567
▁üyelerinin	-6568
İNİ	-6569
▁Bunların	-6570
▁site	-6571
asındaki	-6572
▁tıp	-6573
▁bine	-6574
▁Doktor	-6575
▁Kızıl	-6576
▁gerektiği	-6577
▁çekerek	-6578
▁bitti	-6579
▁ulusal	-6580
▁Nasıl	-6581
▁ulaşan	-6582
▁sorusuna	-6583
leştirme	-6584
▁ANK	-6585
▁gerçekleştirdi	-6586
▁yoluyla	-6587
▁konuyla	-6588
omut	-6589
▁sıkı	-6590
▁aldıkları	-6591
▁yeter	-6592
acaklarını	-6593
▁hırsızlık	-6594
▁kazasında	-6595
▁Un	-6596
▁Şeh	-6597
imizde	-6598
▁olduğunun	-6599
fik	-6600
▁Kork	-6601
İNE	-6602
▁yaygın	-6603
▁babasının	-6604
Ne	-6605
cev	-6606
▁Tük	-6607
▁Çık	-6608
▁buraya	-6609
emeye	-6610
▁rahmet	-6611
▁öğret	-6612
▁Kir	-6613
▁yaşama	-6614
vin	-6615
▁toplan	-6616
▁avantaj	-6617
▁girişiminin	-6618
▁geçirdiği	-6619
malarına	-6620
▁bugünkü	-6621
▁Azerbaycan	-6622
▁Ana	-6623
▁vicdan	-6624
▁haksız	-6625
▁Kuş	-6626
▁ağı	-6627
▁gene	-6628
▁komutan	-6629
▁planı	-6630
▁Otel	-6631
▁Dinç	-6632
----	-6633
▁SGK	-6634
▁sorunları	-6635
▁beyin	-6636
▁okur	-6637
▁arasına	-6638
▁yayınlanan	-6639
▁kararının	-6640
▁söylem	-6641
▁Kapalı	-6642
amayacak	-6643
uğ	-6644
likten	-6645
▁üstüne	-6646
▁PAR	-6647
▁neredeyse	-6648
▁amaçlı	-6649
▁bors	-6650
are	-6651
▁Soruşturma	-6652
lilerin	-6653
▁eğer	-6654
▁katliam	-6655
▁bol	-6656
▁kimi	-6657
▁Diyanet	-6658
▁Pek	-6659
▁yapılmış	-6660
▁olurken	-6661
▁sunu	-6662
▁ora	-6663
▁öneri	-6664
ağıt	-6665
▁mili	-6666
▁iddiaları	-6667
ENİ	-6668
▁evinin	-6669
▁yaklaşım	-6670
▁Şük	-6671
▁şirketleri	-6672
etle	-6673
▁Ulusal	-6674
▁müzakere	-6675
işi	-6676
acağım	-6677
▁duyar	-6678
▁demişti	-6679
▁yazdı	-6680
▁tablo	-6681
▁sektörün	-6682
▁Alevi	-6683
▁vatandaşı	-6684
ump	-6685
▁yürürlüğe	-6686
cilere	-6687
▁konuyu	-6688
tam	-6689
▁TOKİ	-6690
▁haberine	-6691
▁açığa	-6692
▁mülte	-6693
.."	-6694
AYA	-6695
▁nef	-6696
▁Hoca	-6697
▁gördüm	-6698
▁alkış	-6699
lası	-6700
▁görevden	-6701
▁kesintisi	-6702
afir	-6703
▁vefat	-6704
▁6'	-6705
4)	-6706
sip	-6707
amam	-6708
▁ısrar	-6709
▁siyasal	-6710
▁bankalar	-6711
▁davranış	-6712
▁Hayır	-6713
▁Müş	-6714
▁senar	-6715
▁Trafik	-6716
▁kaybı	-6717
▁güvenli	-6718
▁suçlarından	-6719
▁Emir	-6720
▁yeşil	-6721
nağı	-6722
liz	-6723
▁aktör	-6724
▁çıkmış	-6725
MEK	-6726
▁onur	-6727
▁ayakta	-6728
▁slogan	-6729
▁tüp	-6730
▁Politik	-6731
▁Adliyesi	-6732
▁örgü	-6733
▁karara	-6734
abileceğini	-6735
Her	-6736
▁Muhammed	-6737
▁söylediği	-6738
▁Borsa	-6739
göz	-6740
▁teklifi	-6741
▁Geçtiğimiz	-6742
▁duyurusunda	-6743
okul	-6744
▁birer	-6745
▁kaydı	-6746
90	-6747
eter	-6748
▁işsizlik	-6749
▁sel	-6750
liyle	-6751
▁niteli	-6752
▁Körf	-6753
illi	-6754
ster	-6755
▁AKP	-6756
▁açıdan	-6757
▁böb	-6758
▁mensuplarının	-6759
▁cümle	-6760
▁700	-6761
▁hisset	-6762
keli	-6763
gıç	-6764
▁Babacan	-6765
OP	-6766
▁finansman	-6767
▁gerçeği	-6768
▁tahvil	-6769
▁işsiz	-6770
ımıyla	-6771
▁araçların	-6772
likler	-6773
ıyordu	-6774
liyorum	-6775
nü	-6776
iden	-6777
YK	-6778
ula	-6779
▁kıyafet	-6780
▁olayları	-6781
aport	-6782
▁kons	-6783
▁masraf	-6784
▁Erzincan	-6785
▁ye	-6786
dığımız	-6787
▁56	-6788
▁aley	-6789
▁hepsi	-6790
▁bankanın	-6791
▁fuar	-6792
▁85	-6793
▁duruma	-6794
kes	-6795
line	-6796
▁duygu	-6797
ukuki	-6798
▁gösterdiği	-6799
▁Na	-6800
İLDİ	-6801
▁İnan	-6802
▁roket	-6803
▁pomp	-6804
▁borcu	-6805
▁kitle	-6806
TV	-6807
▁sevin	-6808
▁asgari	-6809
avi	-6810
▁Albayrak	-6811
▁kaybettiği	-6812
ij	-6813
ulduğunu	-6814
LEN	-6815
▁Paz	-6816
yL	-6817
ner	-6818
indistan	-6819
▁santral	-6820
▁öldürülen	-6821
▁Ce	-6822
▁sanay	-6823
▁Zor	-6824
▁Yüksel	-6825
elle	-6826
▁ekmek	-6827
▁uygulamalar	-6828
▁KON	-6829
ğunun	-6830
▁harcam	-6831
▁üstünde	-6832
▁kök	-6833
yLock	-6834
▁suyu	-6835
▁Telek	-6836
▁geldik	-6837
▁açıklamasında	-6838
▁sözlerini	-6839
▁başladığını	-6840
▁gerçekleştiren	-6841
▁Kah	-6842
▁bilet	-6843
▁tavır	-6844
▁birleştir	-6845
▁kurtarılamadı	-6846
▁Mad	-6847
▁Basın	-6848
▁okula	-6849
▁yapılandır	-6850
▁tabanca	-6851
DV	-6852
▁olaylar	-6853
▁diyal	-6854
▁yaşat	-6855
▁konuşmada	-6856
▁Günay	-6857
▁attığı	-6858
▁müte	-6859
▁cuma	-6860
▁nefes	-6861
emesi	-6862
▁çoğu	-6863
▁rejim	-6864
▁olunca	-6865
▁tün	-6866
▁devleti	-6867
ladım	-6868
▁Rek	-6869
iyetini	-6870
ledik	-6871
uc	-6872
▁Uk	-6873
PK	-6874
Sen	-6875
▁Ner	-6876
halde	-6877
▁Levent	-6878
▁tutuksuz	-6879
US	-6880
▁gerekti	-6881
▁ekonomisi	-6882
▁hazırlanıyor	-6883
▁kâ	-6884
-201	-6885
tern	-6886
ilivri	-6887
▁7'	-6888
satı	-6889
▁Coş	-6890
▁ücretsiz	-6891
▁Önder	-6892
▁Teknik	-6893
▁Tep	-6894
▁birini	-6895
▁rezerv	-6896
▁cari	-6897
DÜ	-6898
AMA	-6899
▁parçası	-6900
▁başvurdu	-6901
▁min	-6902
▁anım	-6903
▁değildi	-6904
etilen	-6905
EDE	-6906
▁götürdü	-6907
▁karayolu	-6908
▁bankaların	-6909
▁58	-6910
▁taciz	-6911
▁tanış	-6912
▁mahkum	-6913
▁pla	-6914
▁bünyesinde	-6915
▁yönde	-6916
▁hakları	-6917
▁yürüttüğü	-6918
▁06	-6919
▁farkında	-6920
▁çatışmada	-6921
▁kaldırıldığı	-6922
▁ayakkabı	-6923
▁arayarak	-6924
▁çalıştır	-6925
lok	-6926
▁bölgelerde	-6927
▁düzenlenecek	-6928
▁form	-6929
▁masaya	-6930
▁zırhlı	-6931
▁darp	-6932
▁ülkelerde	-6933
▁57	-6934
▁açılması	-6935
Paralel	-6936
▁Avukat	-6937
▁getirmek	-6938
ette	-6939
▁oper	-6940
ilyon	-6941
▁korku	-6942
▁TRT	-6943
diğim	-6944
▁Abdül	-6945
▁anlar	-6946
▁kaynağı	-6947
▁değerlendiren	-6948
▁bini	-6949
▁çant	-6950
▁sağlaya	-6951
▁ailesine	-6952
▁dağıtım	-6953
▁63	-6954
▁vatan	-6955
▁hatırlatan	-6956
▁Mesela	-6957
▁alırken	-6958
▁Kütahya	-6959
▁TÜRKİYE	-6960
▁Hindistan	-6961
▁Art	-6962
▁aktaran	-6963
▁toplumun	-6964
▁Hani	-6965
▁başkenti	-6966
▁Telekom	-6967
▁İstik	-6968
eşme	-6969
▁resim	-6970
▁Enstit	-6971
▁vatandaşları	-6972
▁köylü	-6973
▁Olayın	-6974
dün	-6975
içre	-6976
▁mük	-6977
malara	-6978
ırsa	-6979
▁İK	-6980
▁Filistin	-6981
▁seviyesinde	-6982
▁saldırıya	-6983
▁Türkler	-6984
▁giderken	-6985
▁Bayraktar	-6986
▁günden	-6987
▁atıldı	-6988
▁prov	-6989
▁bazıları	-6990
▁yargılanan	-6991
▁ta	-6992
▁Para	-6993
Dün	-6994
▁Erk	-6995
▁mevz	-6996
makla	-6997
▁BÖ	-6998
▁Yüzde	-6999
▁öf	-7000
▁Fenerbahçe	-7001
▁kamera	-7002
▁KAL	-7003
▁dek	-7004
▁Gele	-7005
▁Mutlu	-7006
▁stat	-7007
▁kirli	-7008
▁ruhsat	-7009
tekin	-7010
▁hadi	-7011
▁Ukray	-7012
▁eleman	-7013
▁gazetecilere	-7014
▁61	-7015
▁yapının	-7016
▁Büro	-7017
▁saatte	-7018
▁adımlar	-7019
▁Ök	-7020
▁olası	-7021
▁büyüklüğünde	-7022
▁manevi	-7023
▁uzaklaştır	-7024
ly	-7025
▁İS	-7026
▁Acar	-7027
cağım	-7028
▁Ümit	-7029
lamayı	-7030
▁görülüyor	-7031
▁Oğuz	-7032
▁Ekip	-7033
▁siyasetçi	-7034
▁kaldırılması	-7035
▁Yah	-7036
▁Lisesi	-7037
▁olmaması	-7038
▁söyley	-7039
▁halkının	-7040
▁sağlıyor	-7041
▁göreve	-7042
▁buradan	-7043
▁Vakıf	-7044
▁devir	-7045
▁satır	-7046
küdar	-7047
▁Yüksekova	-7048
EF	-7049
iyim	-7050
▁me	-7051
▁elbette	-7052
fen	-7053
▁sanığın	-7054
▁Gökhan	-7055
▁sitesinde	-7056
lemiş	-7057
▁Mali	-7058
▁Erdal	-7059
▁Kurtulmuş	-7060
▁arayan	-7061
▁Mor	-7062
▁Türkmen	-7063
▁araçta	-7064
▁bizzat	-7065
▁Silivri	-7066
▁sorg	-7067
▁Ergün	-7068
adaki	-7069
CE	-7070
cik	-7071
▁Tab	-7072
fe	-7073
çekmece	-7074
▁dediler	-7075
batı	-7076
lıca	-7077
ülebilir	-7078
▁noktaya	-7079
asız	-7080
abilmek	-7081
▁akaryakıt	-7082
▁ÖZ	-7083
▁Aks	-7084
▁kere	-7085
tedir	-7086
duat	-7087
▁Adam	-7088
▁olmas	-7089
▁adliye	-7090
▁yolculu	-7091
▁sürecinin	-7092
▁suikast	-7093
▁kalkış	-7094
▁morguna	-7095
▁yönlerden	-7096
LÜ	-7097
DDK	-7098
▁şiddetli	-7099
▁verile	-7100
▁Borsası	-7101
▁katı	-7102
▁Yunus	-7103
▁kurduğu	-7104
▁"2	-7105
▁seçimi	-7106
▁kadına	-7107
▁araçlar	-7108
co	-7109
isiyle	-7110
▁tarihli	-7111
▁indi	-7112
▁Hanım	-7113
▁uygulanacak	-7114
▁eğitimi	-7115
▁organize	-7116
▁kale	-7117
uştuk	-7118
çisi	-7119
▁alama	-7120
▁planlanan	-7121
▁kalacak	-7122
▁Mi	-7123
▁derg	-7124
▁duyg	-7125
▁İsviçre	-7126
▁danışman	-7127
▁Polat	-7128
▁ayrıntı	-7129
▁yüzlerce	-7130
▁Ercan	-7131
denin	-7132
eytin	-7133
▁dönüm	-7134
▁meyve	-7135
▁tutuklanarak	-7136
▁mesle	-7137
▁ailenin	-7138
▁gayrimenkul	-7139
▁pah	-7140
etleme	-7141
▁2008'	-7142
ELİ	-7143
▁kanaat	-7144
▁ört	-7145
lamasıyla	-7146
▁arttır	-7147
▁geçmek	-7148
▁Karşı	-7149
▁yönel	-7150
▁kesinlikle	-7151
▁Sab	-7152
▁karışık	-7153
▁çet	-7154
sever	-7155
▁sergile	-7156
ralı	-7157
▁yansıt	-7158
iyah	-7159
cıların	-7160
▁başlattığı	-7161
▁bahse	-7162
▁başlıklı	-7163
▁önlemleri	-7164
▁1,5	-7165
▁64	-7166
ENİZ	-7167
▁platform	-7168
▁Sekreteri	-7169
▁Pen	-7170
▁taşıyor	-7171
▁bilmiyor	-7172
▁66	-7173
▁dini	-7174
▁ihrac	-7175
▁kitab	-7176
▁Ge	-7177
▁Sh	-7178
▁tutum	-7179
▁öldüğü	-7180
▁yoldan	-7181
▁5.	-7182
▁67	-7183
▁dilekç	-7184
▁Eyüp	-7185
ıb	-7186
▁durumun	-7187
▁şirketler	-7188
▁noktasında	-7189
kiye	-7190
▁başladık	-7191
▁İŞTE	-7192
eyt	-7193
alep	-7194
▁(30	-7195
▁Sem	-7196
▁stratejik	-7197
▁İlhan	-7198
▁saldırgan	-7199
▁Otob	-7200
▁dönük	-7201
▁protokol	-7202
▁Go	-7203
▁Akar	-7204
▁Ertu	-7205
▁anlaşıldı	-7206
▁beraat	-7207
▁elinden	-7208
olot	-7209
▁yanıtladı	-7210
▁Gece	-7211
hiş	-7212
▁çevredeki	-7213
▁lirayı	-7214
▁mahkemece	-7215
▁kurdu	-7216
▁gelenek	-7217
▁Facebook	-7218
▁uzaklaş	-7219
atistik	-7220
▁oğlunun	-7221
▁Taner	-7222
▁ayına	-7223
▁ülkeyi	-7224
▁kararıyla	-7225
▁eşliğinde	-7226
▁Dal	-7227
▁Amirliği	-7228
▁bakış	-7229
▁Toplum	-7230
▁Toprak	-7231
ert	-7232
▁vide	-7233
ash	-7234
▁nedir	-7235
▁ortamda	-7236
▁Putin	-7237
▁koltu	-7238
▁birisi	-7239
▁olamaz	-7240
▁sürece	-7241
Ge	-7242
ciğer	-7243
▁Gençlik	-7244
▁kalabalık	-7245
▁Tören	-7246
▁askerler	-7247
nep	-7248
▁62	-7249
▁savundu	-7250
tılar	-7251
▁senin	-7252
▁aradı	-7253
▁örgüte	-7254
▁yönetme	-7255
▁görüyoruz	-7256
▁kullanıcı	-7257
▁operasyonlar	-7258
▁öğrencilerin	-7259
ımın	-7260
▁Car	-7261
▁yolun	-7262
▁Beyaz	-7263
▁ziyareti	-7264
▁yardımcısı	-7265
▁iddianamede	-7266
▁Endeksi	-7267
▁direksiyon	-7268
▁düzenleyen	-7269
▁karşılığında	-7270
▁Saray	-7271
ılmıştır	-7272
▁edeceğini	-7273
▁olduğumuz	-7274
▁TER	-7275
▁İddianam	-7276
nca	-7277
dığım	-7278
▁patlat	-7279
mekten	-7280
▁şebek	-7281
▁incelemede	-7282
ğdır	-7283
▁dernek	-7284
▁seviyesine	-7285
TAN	-7286
▁Hâ	-7287
Ğİ	-7288
▁gününde	-7289
▁Zira	-7290
usuz	-7291
▁derken	-7292
▁verdik	-7293
▁yapıp	-7294
▁geride	-7295
▁Şans	-7296
eniz	-7297
▁BÜY	-7298
yolu	-7299
dinli	-7300
▁Fir	-7301
▁Başkanlık	-7302
▁for	-7303
▁Üsküdar	-7304
▁Otomobil	-7305
vesi	-7306
▁ofis	-7307
▁Kurban	-7308
dön	-7309
▁bireysel	-7310
▁Tal	-7311
▁çevresinde	-7312
▁gerektir	-7313
▁görüşmeler	-7314
▁Toplam	-7315
▁çektir	-7316
Kur	-7317
▁KDV	-7318
raz	-7319
▁haftaki	-7320
tifak	-7321
▁Çözüm	-7322
▁Çam	-7323
▁çığ	-7324
▁30'	-7325
▁altının	-7326
▁kararın	-7327
ERİ	-7328
gâh	-7329
▁sip	-7330
▁kazı	-7331
▁evlilik	-7332
▁Onur	-7333
▁Engin	-7334
▁araçları	-7335
▁kuruluşu	-7336
alandı	-7337
▁artışı	-7338
▁Üstelik	-7339
▁şüphelinin	-7340
▁hizmete	-7341
idi	-7342
▁karşın	-7343
▁Ann	-7344
dınız	-7345
talyan	-7346
▁amir	-7347
▁kahraman	-7348
▁Arkadaş	-7349
onal	-7350
▁Kırk	-7351
▁anımsat	-7352
▁güzer	-7353
ilip	-7354
▁aydır	-7355
▁pozisyon	-7356
▁kayıtlı	-7357
▁misafir	-7358
▁olağanüstü	-7359
▁hukuki	-7360
▁çağrısı	-7361
asp	-7362
▁Emekli	-7363
▁zamanı	-7364
▁konuk	-7365
egor	-7366
▁organizasyon	-7367
Kar	-7368
▁Erkan	-7369
olotof	-7370
▁Temel	-7371
bon	-7372
esun	-7373
▁Proje	-7374
▁tuzak	-7375
▁öncelik	-7376
ste	-7377
üldüğü	-7378
▁Nusay	-7379
▁günler	-7380
▁Görev	-7381
▁Zeynep	-7382
▁loj	-7383
▁takdirde	-7384
▁köpr	-7385
▁şüphelilerin	-7386
SA	-7387
▁Tart	-7388
▁Doğru	-7389
▁varlık	-7390
eral	-7391
▁göğ	-7392
ıcılık	-7393
don	-7394
▁denk	-7395
▁Aki	-7396
▁nükleer	-7397
▁müdahalelere	-7398
name	-7399
▁YOK	-7400
▁Ertuğrul	-7401
▁aya	-7402
sağ	-7403
▁muhafaz	-7404
▁mezun	-7405
▁lob	-7406
kele	-7407
Bugün	-7408
▁çalışanı	-7409
▁numaralı	-7410
▁olmaktan	-7411
▁cumhuriyet	-7412
▁işler	-7413
▁Asliye	-7414
▁59	-7415
▁bi	-7416
▁grubun	-7417
▁belirsiz	-7418
▁kesimleri	-7419
▁metrekarelik	-7420
▁OLDU	-7421
alarca	-7422
İs	-7423
▁YSK	-7424
▁çete	-7425
▁karakol	-7426
▁Vol	-7427
▁yazık	-7428
▁kapsamlı	-7429
▁No	-7430
anların	-7431
▁saatlerde	-7432
▁8'	-7433
▁Sevgili	-7434
▁hakkını	-7435
▁şüpheliler	-7436
▁BİL	-7437
lıkta	-7438
▁sitesi	-7439
▁istediklerini	-7440
diven	-7441
▁Geliş	-7442
ümüzde	-7443
▁Gerek	-7444
▁aralıklı	-7445
▁temsilci	-7446
▁vize	-7447
▁Yağış	-7448
▁Hast	-7449
▁sana	-7450
▁çalışmaların	-7451
▁dua	-7452
ğunda	-7453
▁çalışmaya	-7454
?'	-7455
▁Akk	-7456
▁aşama	-7457
▁kayın	-7458
▁içinden	-7459
taç	-7460
▁Onu	-7461
▁Ardahan	-7462
▁mermi	-7463
▁ves	-7464
▁Belki	-7465
▁çarpıcı	-7466
▁esnasında	-7467
limp	-7468
▁şekil	-7469
▁geldiğinde	-7470
ck	-7471
▁ayn	-7472
▁aşkın	-7473
▁parmak	-7474
▁Demokrasi	-7475
anta	-7476
▁Hemen	-7477
melidir	-7478
▁nez	-7479
▁Fidan	-7480
▁Bölgede	-7481
▁yardımıyla	-7482
▁öt	-7483
▁eli	-7484
▁tüket	-7485
▁tüfeği	-7486
▁Alp	-7487
▁meşru	-7488
▁Dink	-7489
▁otomotiv	-7490
ysa	-7491
▁ayar	-7492
▁suçu	-7493
▁suy	-7494
▁Dursun	-7495
azi	-7496
▁küç	-7497
▁Ateş	-7498
▁somut	-7499
▁kesimlerinde	-7500
▁çarpıştı	-7501
▁Kaynaklar	-7502
▁Servis	-7503
▁ihtimali	-7504
▁Yalova	-7505
▁kaldığını	-7506
medik	-7507
▁otomobili	-7508
▁ceset	-7509
ese	-7510
cıları	-7511
▁hesabı	-7512
▁imkanı	-7513
eyiz	-7514
▁Federasyonu	-7515
▁2008	-7516
irse	-7517
▁Belç	-7518
▁irtibat	-7519
▁Şemdinli	-7520
Ay	-7521
osk	-7522
▁soruları	-7523
▁Sonuç	-7524
▁askerlerin	-7525
▁kurulacak	-7526
▁birleş	-7527
▁törenine	-7528
RAF	-7529
▁Sahil	-7530
lüt	-7531
▁doların	-7532
umun	-7533
▁Hiçbir	-7534
▁aldıklarını	-7535
▁Trump	-7536
▁personeli	-7537
▁sırt	-7538
▁kaçın	-7539
▁İtalyan	-7540
▁Ukrayna	-7541
ğeri	-7542
urda	-7543
▁boğaz	-7544
▁oyunun	-7545
▁Nusaybin	-7546
▁cezaevinde	-7547
LEM	-7548
▁kalın	-7549
isinden	-7550
▁verildiği	-7551
▁gözden	-7552
pat	-7553
Kür	-7554
▁getiriyor	-7555
▁suretiyle	-7556
▁dinam	-7557
▁ondan	-7558
▁kapanış	-7559
ülük	-7560
▁istenen	-7561
▁tanıtım	-7562
▁72	-7563
▁kişisel	-7564
▁Kürtçe	-7565
▁Öl	-7566
▁KAD	-7567
CHP	-7568
▁Of	-7569
yenin	-7570
▁sokakta	-7571
▁Ekonomik	-7572
örü	-7573
▁5,	-7574
▁kulak	-7575
▁iftir	-7576
lamayan	-7577
▁tarihleri	-7578
▁etmedi	-7579
▁iftar	-7580
▁olacağız	-7581
▁YAŞ	-7582
veren	-7583
▁trilyon	-7584
▁be	-7585
OĞAN	-7586
▁uygulanan	-7587
▁Kob	-7588
▁Müh	-7589
▁olmayı	-7590
▁geliri	-7591
▁altyapı	-7592
ona	-7593
▁boru	-7594
▁maruz	-7595
▁İtfaiye	-7596
ansiyon	-7597
▁ülkeden	-7598
ganı	-7599
▁hamle	-7600
▁Kore	-7601
▁dijital	-7602
▁Tokat	-7603
▁sunuyor	-7604
▁istismar	-7605
▁Roman	-7606
▁sessiz	-7607
dırdı	-7608
▁yarısı	-7609
▁ölçüde	-7610
▁İliş	-7611
▁ANKARA	-7612
▁sağladı	-7613
rama	-7614
▁hikâ	-7615
▁sanki	-7616
▁öğrenc	-7617
▁yılından	-7618
CI	-7619
▁güçlük	-7620
▁yüzyıl	-7621
▁Kalkınma	-7622
▁yetkililer	-7623
▁kayn	-7624
oyol	-7625
▁kategor	-7626
▁yurtdışında	-7627
İP	-7628
▁Japon	-7629
▁netic	-7630
▁oranda	-7631
▁vatandaşlara	-7632
▁savcılığa	-7633
▁sorumlusu	-7634
laştırılmış	-7635
▁şeri	-7636
▁bilinç	-7637
▁sağlam	-7638
▁yapmayı	-7639
▁acaba	-7640
▁sağlanması	-7641
▁sisteminin	-7642
acık	-7643
▁Kaf	-7644
▁bölümünde	-7645
▁emniyetteki	-7646
▁izni	-7647
▁Tutuk	-7648
▁bölgesi	-7649
▁Dan	-7650
▁müjde	-7651
▁Vekili	-7652
▁Enstitüsü	-7653
▁ORT	-7654
▁koordin	-7655
üyü	-7656
▁KK	-7657
▁parası	-7658
▁olabileceğini	-7659
lığından	-7660
▁perakende	-7661
ry	-7662
▁sam	-7663
▁karşılığı	-7664
▁tamamı	-7665
▁emeklilik	-7666
▁Yönetimi	-7667
▁kampanya	-7668
▁ır	-7669
▁Loto	-7670
▁yetersiz	-7671
uyorlar	-7672
▁altından	-7673
yeni	-7674
▁güncel	-7675
▁tap	-7676
▁tasarı	-7677
mışlar	-7678
▁konuya	-7679
▁isimleri	-7680
▁güçlerinin	-7681
▁hastalı	-7682
▁planlıyor	-7683
▁talih	-7684
▁santim	-7685
▁düşünc	-7686
olos	-7687
YE	-7688
▁piyasaya	-7689
için	-7690
uhuş	-7691
▁gözlem	-7692
▁diyecek	-7693
▁kullanı	-7694
▁İMK	-7695
▁elini	-7696
▁07	-7697
▁73	-7698
esince	-7699
▁günün	-7700
▁Ziraat	-7701
▁işlemi	-7702
asus	-7703
dilen	-7704
iller	-7705
▁Uygu	-7706
▁Rüzgar	-7707
▁68	-7708
▁verici	-7709
▁yazarı	-7710
▁piy	-7711
linin	-7712
▁artıyor	-7713
▁Lüt	-7714
▁Ergin	-7715
▁öv	-7716
▁Biri	-7717
▁şoförü	-7718
▁Karaman	-7719
▁biliyoruz	-7720
▁ikamet	-7721
▁Sistemi	-7722
▁yöneticileri	-7723
▁açığı	-7724
▁mevkisinde	-7725
▁çıkara	-7726
▁mir	-7727
▁Komutanlı	-7728
▁77	-7729
▁Dik	-7730
▁Teb	-7731
▁tanıt	-7732
▁15'	-7733
▁yangını	-7734
▁taziye	-7735
▁sürecek	-7736
▁yakaladı	-7737
▁gönderdiği	-7738
▁TC	-7739
▁ikili	-7740
▁işken	-7741
▁havaliman	-7742
parta	-7743
bilmesi	-7744
▁kazası	-7745
▁çekilen	-7746
eton	-7747
▁çak	-7748
Terör	-7749
abil	-7750
Cumhur	-7751
lığıyla	-7752
▁Yabancı	-7753
▁görüntüleri	-7754
▁çevrelerinde	-7755
tre	-7756
lini	-7757
▁Gay	-7758
bilmek	-7759
▁aranan	-7760
sep	-7761
▁devrildi	-7762
▁hükm	-7763
▁taşım	-7764
▁tiyatro	-7765
▁bakanlık	-7766
kiler	-7767
▁kimin	-7768
▁ortağı	-7769
▁İmralı	-7770
▁Savcılık	-7771
▁manşet	-7772
▁ortasında	-7773
▁kanlı	-7774
▁kurmak	-7775
▁alacağı	-7776
▁ayrılan	-7777
▁tey	-7778
▁Celal	-7779
▁tabur	-7780
▁kararına	-7781
▁mevduat	-7782
ATI	-7783
▁infaz	-7784
▁İşada	-7785
alanı	-7786
▁Yolları	-7787
Av	-7788
▁Cemal	-7789
▁analiz	-7790
▁gayret	-7791
▁yaptığımız	-7792
▁farkı	-7793
▁çaplı	-7794
▁aktardı	-7795
gresi	-7796
▁şeker	-7797
mıştım	-7798
▁Ayhan	-7799
▁kalma	-7800
▁otobüsü	-7801
▁korumak	-7802
▁kendim	-7803
▁bölgesel	-7804
▁sayısını	-7805
▁tavsiye	-7806
ski	-7807
▁Konuş	-7808
biliriz	-7809
▁Terörist	-7810
üman	-7811
▁ülkelere	-7812
▁,	-7813
sün	-7814
▁sizi	-7815
▁Me	-7816
▁Kaçakçılık	-7817
▁etmiyor	-7818
▁akademisyen	-7819
zin	-7820
▁oluşturdu	-7821
elçi	-7822
▁195	-7823
▁kömür	-7824
▁söylen	-7825
▁altındaki	-7826
▁kullanmak	-7827
▁Ajansı	-7828
▁partisi	-7829
▁geleceği	-7830
▁ast	-7831
▁büyüyen	-7832
▁saldırının	-7833
düğünü	-7834
erkel	-7835
BİT	-7836
▁büyüt	-7837
▁bölün	-7838
▁Tuz	-7839
ington	-7840
▁selam	-7841
▁liman	-7842
▁uzmanı	-7843
uarı	-7844
▁sığınma	-7845
▁filmi	-7846
▁yolunu	-7847
▁GEÇ	-7848
▁vali	-7849
▁gençler	-7850
ayarak	-7851
▁vat	-7852
▁Serdar	-7853
day	-7854
▁işgal	-7855
▁09	-7856
▁boşalt	-7857
▁Sorumlu	-7858
▁saldırısı	-7859
▁anket	-7860
▁Maden	-7861
▁PR	-7862
gam	-7863
▁İZ	-7864
▁zorla	-7865
▁Coşkun	-7866
enn	-7867
▁küf	-7868
▁evlen	-7869
Ak	-7870
kişi	-7871
▁Küresel	-7872
▁hastası	-7873
▁SÜR	-7874
GS	-7875
zet	-7876
ılacağı	-7877
izik	-7878
▁Brezil	-7879
▁ücreti	-7880
▁edilmişti	-7881
ros	-7882
▁bazen	-7883
▁mücadelede	-7884
▁başlaya	-7885
▁etkinlik	-7886
▁psikolojik	-7887
▁tok	-7888
▁mahsur	-7889
▁Süper	-7890
5,	-7891
▁Sı	-7892
ahisar	-7893
▁bakın	-7894
▁Yenik	-7895
▁bastı	-7896
▁Memur	-7897
▁ayrım	-7898
▁mühimmat	-7899
ras	-7900
▁atarak	-7901
▁lisans	-7902
▁edilirken	-7903
▁sahipleri	-7904
madım	-7905
▁Berk	-7906
▁Bile	-7907
▁kurumsal	-7908
Devlet	-7909
▁topar	-7910
lemesi	-7911
▁Bağış	-7912
alarıyla	-7913
▁öldüren	-7914
evet	-7915
▁çalışmalarının	-7916
fan	-7917
▁işten	-7918
▁Efendi	-7919
▁sağlanacak	-7920
▁bis	-7921
▁Fonu	-7922
▁açıklayan	-7923
▁Metro	-7924
▁ağz	-7925
▁başkanlığında	-7926
▁Yang	-7927
▁Kastam	-7928
▁uygulamaya	-7929
iğit	-7930
iyecek	-7931
▁derec	-7932
▁provok	-7933
▁muhalef	-7934
▁kilometr	-7935
▁Ülkem	-7936
▁alanına	-7937
iyiz	-7938
▁liste	-7939
▁söyleye	-7940
▁bombası	-7941
▁Amerikalı	-7942
▁seçimleri	-7943
▁İD	-7944
▁Cenaz	-7945
▁YÜZ	-7946
▁etkisini	-7947
As	-7948
fettiş	-7949
▁girmek	-7950
▁apartman	-7951
▁bakımından	-7952
▁Giresun	-7953
▁olmuştur	-7954
▁molotof	-7955
ıldığında	-7956
▁Ast	-7957
yınca	-7958
▁görünt	-7959
▁gazı	-7960
▁muhabirine	-7961
▁vir	-7962
▁Kardeş	-7963
▁alındığını	-7964
âri	-7965
▁sıç	-7966
dıran	-7967
▁panik	-7968
▁İhbar	-7969
BİTAK	-7970
▁olabileceği	-7971
▁78	-7972
▁vermişti	-7973
▁muay	-7974
▁Eroğlu	-7975
▁dör	-7976
▁bilgisi	-7977
▁Medya	-7978
▁sabit	-7979
▁100'	-7980
alaş	-7981
▁kalmış	-7982
bis	-7983
.000	-7984
▁Cihan	-7985
▁Yapılanması	-7986
malarının	-7987
lav	-7988
▁2000	-7989
eğinin	-7990
ınc	-7991
▁Ağa	-7992
▁eh	-7993
yasal	-7994
▁pop	-7995
▁oldum	-7996
▁vücud	-7997
▁kalmadı	-7998
▁geçtiği	-7999
▁taraftan	-8000
lılığı	-8001
▁aldım	-8002
▁koltuk	-8003
gören	-8004
ard	-8005
▁Duruş	-8006
▁şahsın	-8007
▁Isparta	-8008
▁SOR	-8009
▁aramada	-8010
▁yapılacağı	-8011
eceğim	-8012
▁yükselen	-8013
▁açılacak	-8014
▁diyorlar	-8015
sesi	-8016
▁iddiası	-8017
▁oyu	-8018
▁konfer	-8019
İl	-8020
▁okuy	-8021
▁kapatı	-8022
▁skandal	-8023
tının	-8024
.30'	-8025
tıcı	-8026
letişim	-8027
eğine	-8028
▁Sanık	-8029
▁Başbuğ	-8030
▁düzelt	-8031
▁çalışıyoruz	-8032
▁Kastamonu	-8033
▁AD	-8034
▁teşkilat	-8035
▁DO	-8036
▁Ülke	-8037
▁çaba	-8038
▁fotoğrafı	-8039
yem	-8040
▁Iğdır	-8041
▁Lider	-8042
▁Çakır	-8043
▁sürecine	-8044
▁hemş	-8045
omatik	-8046
▁kalb	-8047
▁uzan	-8048
opi	-8049
otik	-8050
▁Kül	-8051
▁kedi	-8052
▁otopark	-8053
GE	-8054
▁76	-8055
▁Kök	-8056
▁düştüğü	-8057
▁Le	-8058
tiler	-8059
▁alak	-8060
▁kafa	-8061
malarda	-8062
▁Merkel	-8063
▁rüzgar	-8064
▁lan	-8065
▁Yoksa	-8066
▁programında	-8067
▁vesi	-8068
▁Ceylan	-8069
▁ölümüne	-8070
▁tamamladı	-8071
▁bütç	-8072
limpiyat	-8073
▁seçimlerinde	-8074
cay	-8075
▁tim	-8076
99	-8077
▁Mot	-8078
▁mutab	-8079
▁giriyor	-8080
▁Mac	-8081
▁ölümü	-8082
▁Bulvarı	-8083
larınca	-8084
▁avukatları	-8085
▁yakıt	-8086
▁vizyon	-8087
▁boşanma	-8088
:00	-8089
▁Siyasi	-8090
▁önündeki	-8091
▁katılımıyla	-8092
▁katılacak	-8093
▁Evren	-8094
▁Vatan	-8095
▁namlulu	-8096
▁girişimine	-8097
▁duruşmada	-8098
NA	-8099
▁oranının	-8100
▁cinayeti	-8101
▁miktarda	-8102
▁Hakları	-8103
ilmesinin	-8104
▁bulunmadığı	-8105
terör	-8106
übü	-8107
▁Üm	-8108
▁Pakistan	-8109
sis	-8110
iser	-8111
▁töreni	-8112
▁Pap	-8113
▁Anayas	-8114
ife	-8115
▁hoc	-8116
▁duran	-8117
▁balkon	-8118
▁sistemine	-8119
▁2007'	-8120
▁iddiaya	-8121
▁Osmaniye	-8122
▁kararlaştır	-8123
üzg	-8124
urdu	-8125
▁Araştır	-8126
ledikleri	-8127
▁araçla	-8128
▁ahlak	-8129
olları	-8130
▁pasaport	-8131
▁mensupları	-8132
▁kırık	-8133
eji	-8134
▁talimatıyla	-8135
rat	-8136
▁BB	-8137
▁sesi	-8138
ud	-8139
▁Hız	-8140
ısındaki	-8141
MAN	-8142
▁ilçede	-8143
▁Başka	-8144
▁riski	-8145
yim	-8146
▁temizlik	-8147
SB	-8148
▁dışındaki	-8149
▁tehlikeli	-8150
emli	-8151
▁Mevlüt	-8152
▁Teşki	-8153
▁dayalı	-8154
-7	-8155
▁üstü	-8156
▁duruyor	-8157
▁şüphe	-8158
▁yangında	-8159
YO	-8160
amuk	-8161
▁töreninde	-8162
▁Şey	-8163
▁geçerek	-8164
▁fiyatlarının	-8165
▁HAR	-8166
erkesi	-8167
▁yürek	-8168
▁Başkent	-8169
▁Dolar	-8170
▁çocuklara	-8171
▁DOĞU	-8172
▁Değer	-8173
▁esrar	-8174
▁Belçika	-8175
▁kişilere	-8176
▁yurtdışına	-8177
ashington	-8178
▁bot	-8179
▁Savaşı	-8180
▁ekonomisinin	-8181
▁benzin	-8182
▁sürecin	-8183
karahisar	-8184
▁sistemin	-8185
▁beğen	-8186
▁seçilen	-8187
esti	-8188
▁araca	-8189
▁Kerim	-8190
HKP	-8191
▁kusur	-8192
▁modeli	-8193
▁İMKB	-8194
▁operatör	-8195
Son	-8196
▁şunu	-8197
LAŞ	-8198
▁KKTC	-8199
▁bedeli	-8200
▁mağaza	-8201
oban	-8202
▁Dündar	-8203
▁düzeyinde	-8204
▁çiçek	-8205
▁ilişkileri	-8206
atar	-8207
▁Eren	-8208
Or	-8209
▁dep	-8210
▁sınırlı	-8211
▁ormanlık	-8212
▁Hakkâri	-8213
▁sanıklar	-8214
▁sürecini	-8215
▁bağlantılı	-8216
amı	-8217
▁koca	-8218
to	-8219
gay	-8220
▁muhte	-8221
▁Karaca	-8222
▁ilgisi	-8223
▁musunuz	-8224
▁düşünüyoruz	-8225
▁isyan	-8226
immet	-8227
▁nöbetçi	-8228
▁olmaları	-8229
▁Müsteşarı	-8230
▁Port	-8231
▁Eylem	-8232
▁zamanlarda	-8233
mamız	-8234
▁şikayetçi	-8235
▁İf	-8236
ırım	-8237
▁kapattı	-8238
▁saatlik	-8239
▁elindeki	-8240
▁operasyonunda	-8241
▁Festiv	-8242
▁projeleri	-8243
eron	-8244
▁kont	-8245
▁Çorum	-8246
▁haftada	-8247
▁halindeki	-8248
▁füz	-8249
▁KARAD	-8250
▁çalışırken	-8251
▁74	-8252
▁pani	-8253
▁İletişim	-8254
▁değişen	-8255
▁Başsavcı	-8256
▁incelemelerde	-8257
lılı	-8258
▁suçlu	-8259
▁Bölümü	-8260
▁Be	-8261
portaj	-8262
▁markası	-8263
▁yardımı	-8264
▁kanıt	-8265
▁KAY	-8266
▁Ders	-8267
▁evrak	-8268
▁yansıdı	-8269
▁değerlendirdi	-8270
abey	-8271
yalet	-8272
▁ilçelerinde	-8273
▁yüzü	-8274
▁müşter	-8275
▁İnternet	-8276
bor	-8277
▁95	-8278
▁alar	-8279
▁Dilek	-8280
▁etap	-8281
▁market	-8282
▁nakli	-8283
▁varil	-8284
▁gümrük	-8285
▁Mezarlığı	-8286
madık	-8287
▁öğrencileri	-8288
▁Veli	-8289
▁disip	-8290
▁getirecek	-8291
▁gelişmiş	-8292
▁diş	-8293
▁MİLYON	-8294
11	-8295
ADA	-8296
▁avro	-8297
▁hastalığı	-8298
PSS	-8299
larsa	-8300
▁zemin	-8301
Şu	-8302
▁Yangın	-8303
▁konulan	-8304
▁yanındaki	-8305
iner	-8306
▁Planı	-8307
tikleri	-8308
▁kucak	-8309
▁görünüyor	-8310
▁kül	-8311
▁Soma	-8312
▁rakip	-8313
▁(6	-8314
▁Salı	-8315
▁mıs	-8316
▁val	-8317
▁kuruldu	-8318
▁binası	-8319
▁olsaydı	-8320
▁kuz	-8321
▁6,	-8322
mede	-8323
ğimizi	-8324
meler	-8325
▁general	-8326
!.	-8327
▁deş	-8328
▁Ataş	-8329
Bizim	-8330
▁gördüğ	-8331
▁euroluk	-8332
▁oto	-8333
▁ciro	-8334
iyordu	-8335
aka	-8336
roup	-8337
▁moda	-8338
ımızda	-8339
▁TÜSİAD	-8340
▁sorgulan	-8341
▁aracına	-8342
▁konuşuyor	-8343
▁çalışanları	-8344
ando	-8345
▁cevab	-8346
▁eline	-8347
▁sorusu	-8348
▁deh	-8349
▁bula	-8350
onsor	-8351
▁manz	-8352
▁sipar	-8353
▁TÜBİTAK	-8354
▁sezon	-8355
▁herhalde	-8356
▁emin	-8357
▁olmasın	-8358
▁Bize	-8359
▁â	-8360
▁KAP	-8361
▁İlç	-8362
▁bozuk	-8363
▁kısıt	-8364
▁akl	-8365
▁basit	-8366
▁müthiş	-8367
▁Dünyada	-8368
▁Polisin	-8369
▁buzlanma	-8370
▁paylaştı	-8371
▁Demokratik	-8372
▁özen	-8373
▁yoluna	-8374
iste	-8375
▁köken	-8376
▁KARADENİZ	-8377
▁vah	-8378
▁verimli	-8379
▁Ziy	-8380
layın	-8381
▁sermay	-8382
inan	-8383
▁Çevik	-8384
▁Pazartesi	-8385
aklı	-8386
▁YENİ	-8387
▁kump	-8388
▁edilmiştir	-8389
▁İLK	-8390
DOĞAN	-8391
abildi	-8392
▁Akşam	-8393
▁fen	-8394
▁düzeyde	-8395
▁kampanyası	-8396
etice	-8397
leyip	-8398
▁inanıyorum	-8399
ât	-8400
yonel	-8401
ozgat	-8402
İMİZ	-8403
▁KİŞ	-8404
▁Dest	-8405
▁hazırlan	-8406
ebiliyor	-8407
▁vermedi	-8408
▁kaybeder	-8409
düğ	-8410
üsünün	-8411
▁Değiş	-8412
▁teker	-8413
▁vesile	-8414
▁değilim	-8415
▁herkese	-8416
AKAN	-8417
▁soruşturmada	-8418
▁şif	-8419
▁Yolu	-8420
▁yılına	-8421
▁Keş	-8422
▁parlament	-8423
▁verdikleri	-8424
▁Önümüzdeki	-8425
▁sebebi	-8426
▁yenile	-8427
▁Temsil	-8428
DİR	-8429
▁semt	-8430
▁seni	-8431
▁projeler	-8432
▁Öksüz	-8433
▁izleyen	-8434
▁Savcılığı	-8435
MİŞ	-8436
▁Muhar	-8437
▁İlker	-8438
▁350	-8439
▁firması	-8440
▁cevabı	-8441
olog	-8442
▁mon	-8443
▁tarz	-8444
aşı	-8445
▁YÖK	-8446
▁ışı	-8447
▁Gönül	-8448
▁önünü	-8449
halenin	-8450
▁ittifak	-8451
▁ilgilendir	-8452
asıt	-8453
emek	-8454
▁ente	-8455
▁eylemi	-8456
▁denet	-8457
▁izlen	-8458
▁utan	-8459
▁fırtına	-8460
▁temsilcileri	-8461
▁Güç	-8462
▁katılmak	-8463
▁soruşturmanın	-8464
▁Kazan	-8465
▁çekmek	-8466
▁inanç	-8467
▁gözü	-8468
▁ilave	-8469
▁iktidara	-8470
▁veriliyor	-8471
▁şük	-8472
▁eşlik	-8473
▁kalıyor	-8474
apur	-8475
▁Zirvesi	-8476
▁çeyreğinde	-8477
▁şirketlerinin	-8478
isti	-8479
▁iniş	-8480
sinler	-8481
▁ismini	-8482
▁çocuklarının	-8483
▁Altun	-8484
▁intik	-8485
▁metr	-8486
alayan	-8487
▁fırsatı	-8488
▁sayısında	-8489
Çok	-8490
▁Jo	-8491
-16	-8492
ota	-8493
yeri	-8494
tiy	-8495
▁cesed	-8496
▁çektiği	-8497
▁alınırken	-8498
▁minib	-8499
▁gasp	-8500
▁meclis	-8501
▁ihracatı	-8502
▁memleketi	-8503
▁imamı	-8504
İHM	-8505
lıktan	-8506
MIŞ	-8507
▁40'	-8508
▁ürünü	-8509
OBB	-8510
▁bırakılan	-8511
▁Elif	-8512
▁husus	-8513
▁siyah	-8514
▁çalın	-8515
▁Tüketici	-8516
▁hastanelere	-8517
▁tetik	-8518
▁İLE	-8519
leksiyon	-8520
▁bebeğin	-8521
▁tehlike	-8522
▁Operasyonda	-8523
▁güçlerine	-8524
▁Bankacılık	-8525
▁Tür	-8526
▁Kongre	-8527
-20	-8528
rini	-8529
▁3.5	-8530
▁KAT	-8531
▁geriye	-8532
▁olaydan	-8533
▁hücre	-8534
▁ihmal	-8535
▁dondur	-8536
▁gördüğünü	-8537
-25	-8538
int	-8539
▁Mün	-8540
▁DHKP	-8541
▁kısım	-8542
▁edeceği	-8543
▁karşılıklı	-8544
▁potansiy	-8545
▁idaresindeki	-8546
▁verdim	-8547
▁göstererek	-8548
▁NE	-8549
udut	-8550
▁dür	-8551
▁kuran	-8552
▁vakit	-8553
PA	-8554
ulur	-8555
▁Mic	-8556
▁Brezilya	-8557
▁yalnızca	-8558
▁çekim	-8559
▁saldırıyı	-8560
▁Mut	-8561
▁sus	-8562
▁Şener	-8563
▁Koruma	-8564
▁tespiti	-8565
▁kazanç	-8566
▁şampiyon	-8567
▁şifre	-8568
▁şahit	-8569
▁Koordin	-8570
▁bilinmeyen	-8571
ata	-8572
▁karn	-8573
ışması	-8574
fone	-8575
▁"201	-8576
▁Hele	-8577
▁duyan	-8578
▁devrim	-8579
▁saldırdı	-8580
▁YAK	-8581
▁ağabey	-8582
▁Kanada	-8583
▁tamamlanan	-8584
▁kentte	-8585
▁bıçakla	-8586
▁sıv	-8587
▁blok	-8588
▁bahçesinde	-8589
tina	-8590
PKK	-8591
ıklı	-8592
▁sarı	-8593
jan	-8594
▁başört	-8595
▁üretilen	-8596
▁İstiklal	-8597
▁kendileri	-8598
▁ByLock	-8599
▁Birinci	-8600
▁şidde	-8601
▁Aksaray	-8602
lüğüne	-8603
rettin	-8604
▁bayrağı	-8605
▁maalesef	-8606
düncü	-8607
▁artı	-8608
▁Körfez	-8609
▁tırman	-8610
▁Marmaris	-8611
▁ediyorlar	-8612
ataş	-8613
▁Som	-8614
▁Parlament	-8615
▁sakinleri	-8616
▁Hac	-8617
▁zem	-8618
▁sundu	-8619
▁Burhan	-8620
▁noktası	-8621
▁tit	-8622
▁Mit	-8623
▁birliği	-8624
▁uğradı	-8625
üler	-8626
▁Düzce	-8627
▁mimar	-8628
▁İnşallah	-8629
▁olmasının	-8630
▁günleri	-8631
▁konusundaki	-8632
▁coş	-8633
▁sos	-8634
▁fuhuş	-8635
oğu	-8636
ASYON	-8637
▁Mesut	-8638
▁kararlı	-8639
Sur	-8640
arete	-8641
▁ihanet	-8642
▁girerek	-8643
▁Adil	-8644
▁doğan	-8645
sk	-8646
▁toz	-8647
▁Orada	-8648
▁çalıştığını	-8649
üşvet	-8650
odafone	-8651
▁alınmış	-8652
▁Yaralılar	-8653
▁Soylu	-8654
EYE	-8655
▁192	-8656
▁konuşmasında	-8657
▁Adem	-8658
tikten	-8659
▁yatırımı	-8660
▁90'	-8661
dikal	-8662
▁konv	-8663
▁Gazze	-8664
▁Oktay	-8665
▁yanıtlayan	-8666
▁AF	-8667
▁erdi	-8668
▁Sivil	-8669
▁personelin	-8670
▁Bart	-8671
▁şeyin	-8672
▁kullanma	-8673
▁Div	-8674
▁maz	-8675
▁Umut	-8676
▁Köşkü	-8677
▁raporda	-8678
▁duman	-8679
▁Yozgat	-8680
▁alanlarda	-8681
▁Zeytin	-8682
▁emek	-8683
▁insani	-8684
▁mekaniz	-8685
▁planlanıyor	-8686
gele	-8687
▁çıkarıldığı	-8688
▁ağırlaştırılmış	-8689
TİR	-8690
▁Dic	-8691
▁YPG	-8692
▁araçtan	-8693
▁Sun	-8694
▁mutluluk	-8695
lısı	-8696
▁Zeki	-8697
▁namazı	-8698
▁SU	-8699
▁70'	-8700
▁TAK	-8701
▁ten	-8702
eygam	-8703
▁alıcı	-8704
ben	-8705
▁Erbakan	-8706
▁almıştı	-8707
ETİ	-8708
▁pank	-8709
▁GÜ	-8710
▁ob	-8711
isindeki	-8712
▁satılan	-8713
▁bürokrat	-8714
▁Kut	-8715
▁usulsüz	-8716
▁MAR	-8717
▁süreyle	-8718
▁Anlaş	-8719
▁okuyan	-8720
▁sokaklar	-8721
BB	-8722
▁tekne	-8723
birliği	-8724
▁konularda	-8725
▁talebinde	-8726
▁hesabından	-8727
▁partisinin	-8728
kaz	-8729
▁Özer	-8730
acağına	-8731
▁Düzenleme	-8732
gur	-8733
zani	-8734
▁havuz	-8735
▁satan	-8736
▁Bugüne	-8737
▁patron	-8738
▁Büyükelçisi	-8739
▁içki	-8740
▁röportaj	-8741
▁akın	-8742
▁yetmez	-8743
atıyla	-8744
▁çavuş	-8745
▁haberleri	-8746
cın	-8747
ori	-8748
▁köşe	-8749
▁açıkça	-8750
▁zihniyet	-8751
▁Platform	-8752
▁genellikle	-8753
mon	-8754
▁ÇAL	-8755
▁getirerek	-8756
▁Afyonkarahisar	-8757
ilişim	-8758
▁oğlum	-8759
ülasyon	-8760
▁Şer	-8761
▁katında	-8762
▁haberler	-8763
▁Meslek	-8764
▁Harekat	-8765
▁adrese	-8766
▁milyonlarca	-8767
▁Çevr	-8768
▁Şeri	-8769
▁Artvin	-8770
▁demektir	-8771
▁tay	-8772
▁Kırık	-8773
▁DÖ	-8774
▁6.	-8775
▁emir	-8776
▁caz	-8777
▁Pınar	-8778
▁Hatice	-8779
▁takibe	-8780
▁polislerin	-8781
▁Özk	-8782
▁Baraj	-8783
▁belirtiyor	-8784
▁Uşak	-8785
▁mesela	-8786
▁Öğretim	-8787
▁Çarşamba	-8788
▁Hen	-8789
▁gözler	-8790
▁garanti	-8791
▁Sınav	-8792
▁bakar	-8793
Cİ	-8794
▁yoksul	-8795
▁ERDOĞAN	-8796
▁talebiyle	-8797
▁Sol	-8798
▁The	-8799
▁gal	-8800
▁sunulan	-8801
andev	-8802
▁hali	-8803
▁seferber	-8804
▁böylece	-8805
olan	-8806
▁2007	-8807
▁yapabilir	-8808
ruz	-8809
sindeki	-8810
▁kalıcı	-8811
▁sağladığı	-8812
▁geleceğini	-8813
▁İkti	-8814
▁kurtarıldı	-8815
12	-8816
▁havaya	-8817
▁karanlık	-8818
▁eriş	-8819
▁Zeybek	-8820
▁Partili	-8821
▁haklarında	-8822
antaj	-8823
▁paketi	-8824
▁Hakkında	-8825
▁genişlet	-8826
▁kararları	-8827
▁siyasetin	-8828
unç	-8829
▁seyret	-8830
ogle	-8831
cular	-8832
▁ikisi	-8833
▁dolardan	-8834
▁sürdüren	-8835
▁Nurettin	-8836
▁görünüm	-8837
▁açıklanan	-8838
▁TEK	-8839
▁Kimse	-8840
▁göçmen	-8841
▁kala	-8842
▁şaşkın	-8843
▁şeklindeki	-8844
▁kira	-8845
▁alçak	-8846
ehri	-8847
▁açıklamaları	-8848
▁10.	-8849
▁Akif	-8850
okulu	-8851
▁gitmiş	-8852
▁üreten	-8853
▁ürünler	-8854
▁AÇIKL	-8855
▁iştir	-8856
▁iddianame	-8857
çar	-8858
▁kemik	-8859
▁bırakıp	-8860
▁kentinde	-8861
▁Hik	-8862
▁yemin	-8863
▁TERÖR	-8864
ICAK	-8865
▁Banka	-8866
▁Mimar	-8867
▁Sektör	-8868
▁Doğal	-8869
▁ederim	-8870
Benim	-8871
▁artacak	-8872
itif	-8873
▁olanların	-8874
ammer	-8875
dinde	-8876
▁basına	-8877
▁girişiminde	-8878
▁yaralandığı	-8879
evler	-8880
▁yürüm	-8881
▁Kaplan	-8882
▁seçime	-8883
▁kullanıldığı	-8884
▁BDDK	-8885
sağlığı	-8886
SO	-8887
mini	-8888
▁tarihe	-8889
▁Kızılay	-8890
▁uyarısı	-8891
İNDE	-8892
▁Mir	-8893
▁deği	-8894
▁flaş	-8895
▁kesimlerde	-8896
▁SICAK	-8897
▁Zeker	-8898
▁krizin	-8899
▁Barzani	-8900
▁darbeci	-8901
has	-8902
▁83	-8903
ator	-8904
▁Hab	-8905
▁kurulması	-8906
luğa	-8907
▁pahalı	-8908
▁yaptım	-8909
▁kamuoyuna	-8910
▁Müdürlüğüne	-8911
▁Sözcüsü	-8912
▁oynayan	-8913
▁Dört	-8914
aladığı	-8915
▁alanları	-8916
▁7,	-8917
▁nikah	-8918
▁Vodafone	-8919
▁oraya	-8920
▁Haydar	-8921
▁vadede	-8922
▁onlarca	-8923
▁sob	-8924
▁girip	-8925
lamayacak	-8926
TL	-8927
▁vaat	-8928
▁nereye	-8929
▁sponsor	-8930
▁görüşmede	-8931
▁çerçevede	-8932
tımı	-8933
▁Meli	-8934
▁tünel	-8935
garistan	-8936
▁gerekse	-8937
▁MER	-8938
▁olaya	-8939
▁çevreleri	-8940
▁öp	-8941
kender	-8942
▁canlandır	-8943
OĞLU	-8944
▁:	-8945
eçh	-8946
▁ateşe	-8947
▁değiliz	-8948
▁sağlığı	-8949
▁tüketic	-8950
▁bulunmak	-8951
▁çizen	-8952
▁başlamış	-8953
▁getirilmesi	-8954
tirme	-8955
ıntılı	-8956
▁Tatlıses	-8957
▁sorunlar	-8958
▁yaşanıyor	-8959
▁festiv	-8960
▁dönüştü	-8961
▁otomobilde	-8962
▁Dil	-8963
ilmez	-8964
▁Piyasası	-8965
▁insanlık	-8966
cevit	-8967
eygamber	-8968
▁yöneticisi	-8969
▁nefret	-8970
ood	-8971
▁yüküm	-8972
kurt	-8973
▁neticesinde	-8974
▁DÜŞ	-8975
▁kapandı	-8976
▁ren	-8977
▁aldır	-8978
▁Politikalar	-8979
teli	-8980
yarak	-8981
▁Günde	-8982
▁69	-8983
ğınca	-8984
OJ	-8985
▁Erc	-8986
▁kör	-8987
▁Hayvancılık	-8988
Evet	-8989
▁aşan	-8990
▁yaptırım	-8991
▁cumhurbaşkanı	-8992
▁Şeker	-8993
▁paranın	-8994
▁Durum	-8995
Hay	-8996
şer	-8997
▁Dicle	-8998
▁merdiven	-8999
▁kurultay	-9000
▁oluşturuyor	-9001
▁mücade	-9002
lenmesine	-9003
▁Kem	-9004
▁parça	-9005
▁hayran	-9006
▁Bankalar	-9007
▁Perşembe	-9008
▁84	-9009
▁br	-9010
▁Film	-9011
▁gazetesinin	-9012
▁eğlence	-9013
raktör	-9014
OC	-9015
BUL	-9016
▁hitap	-9017
▁böbrek	-9018
▁pompalı	-9019
▁çıkarmak	-9020
▁193	-9021
▁Ras	-9022
▁kullanıldı	-9023
▁otoyol	-9024
▁sözler	-9025
▁buluyor	-9026
eyse	-9027
and	-9028
iyesi	-9029
▁militan	-9030
▁durdu	-9031
▁anlama	-9032
▁hatırlattı	-9033
say	-9034
▁mayın	-9035
▁firmanın	-9036
▁Kırklar	-9037
▁mesajları	-9038
▁yıldön	-9039
▁başsağlığı	-9040
▁İddianamede	-9041
▁KPSS	-9042
▁inşallah	-9043
▁gittiğini	-9044
▁Yarın	-9045
▁kurtuldu	-9046
TT	-9047
▁Yiğit	-9048
▁vurgulandı	-9049
▁GÖZ	-9050
▁şiir	-9051
▁belgesi	-9052
▁tekstil	-9053
iklik	-9054
▁komp	-9055
▁müraca	-9056
▁düşmesi	-9057
▁şartıyla	-9058
Dem	-9059
▁Sch	-9060
▁Fuat	-9061
▁uzlaş	-9062
▁partilerin	-9063
mda	-9064
tası	-9065
▁sop	-9066
▁evet	-9067
▁işkence	-9068
▁Hz	-9069
▁kapatıldı	-9070
▁umu	-9071
nikof	-9072
▁nakil	-9073
▁kalması	-9074
▁kenarında	-9075
▁mahkemenin	-9076
▁seçimlerde	-9077
▁üstün	-9078
idor	-9079
▁25'	-9080
▁gerekmektedir	-9081
▁ceb	-9082
▁ilke	-9083
▁tarihte	-9084
üste	-9085
mıyorum	-9086
▁EV	-9087
OĞRAF	-9088
▁merkeze	-9089
yalım	-9090
▁İngilizce	-9091
-6	-9092
▁sanıkların	-9093
▁vurg	-9094
▁herkesi	-9095
▁kavgaya	-9096
▁110	-9097
▁menf	-9098
▁başkanları	-9099
▁istikametine	-9100
mik	-9101
▁rüt	-9102
oktey	-9103
▁oradan	-9104
▁Denizcilik	-9105
ANK	-9106
▁Çay	-9107
▁nite	-9108
▁diliyorum	-9109
▁Tün	-9110
▁tarihinin	-9111
▁Destek	-9112
▁elbis	-9113
▁seçildi	-9114
▁82	-9115
▁biber	-9116
▁yönlü	-9117
▁zorluk	-9118
▁astsubay	-9119
▁Sarıyer	-9120
▁kaybede	-9121
▁soygun	-9122
oyolu	-9123
▁eğilim	-9124
▁yanıtını	-9125
▁kamuoyu	-9126
▁Avrupalı	-9127
▁ilişkisi	-9128
▁TIKLAYINIZ	-9129
▁komş	-9130
75	-9131
▁aydınlat	-9132
▁önlemi	-9133
▁milyona	-9134
▁sevgilisi	-9135
ındık	-9136
▁Dinçer	-9137
▁mevzuat	-9138
▁beton	-9139
▁sistemini	-9140
▁2023	-9141
lüğünü	-9142
▁nesil	-9143
ışmanın	-9144
▁taburcu	-9145
▁otomatik	-9146
vanya	-9147
▁Ekrem	-9148
▁ikin	-9149
▁saati	-9150
▁Camii	-9151
▁maliyeti	-9152
▁annesinin	-9153
ft	-9154
irli	-9155
▁kaygı	-9156
▁görüntüler	-9157
bilen	-9158
OTOĞRAF	-9159
NİN	-9160
Yar	-9161
▁işleri	-9162
▁ömür	-9163
▁düşüyor	-9164
▁Ümran	-9165
▁bulmak	-9166
▁kültürel	-9167
▁Pas	-9168
lıların	-9169
▁aleyhine	-9170
▁çevrelerinin	-9171
▁defne	-9172
malıyız	-9173
şiv	-9174
reden	-9175
▁Hedef	-9176
▁arıyor	-9177
▁diyorum	-9178
▁Karabük	-9179
▁davasının	-9180
▁değişti	-9181
▁bölgesine	-9182
▁dünyasının	-9183
▁Acı	-9184
▁aylarında	-9185
▁yazan	-9186
▁sinema	-9187
▁başlatan	-9188
▁karşılaştı	-9189
▁Lice	-9190
▁dünyası	-9191
bas	-9192
osna	-9193
diler	-9194
▁sisteme	-9195
▁sunduğu	-9196
▁kimyasal	-9197
Gİ	-9198
▁yönetiminin	-9199
andal	-9200
▁Halep	-9201
▁eşine	-9202
▁İsveç	-9203
▁gençlerin	-9204
yada	-9205
▁barın	-9206
▁kontrolü	-9207
▁ortaklık	-9208
▁tarafı	-9209
▁çıkmak	-9210
▁60'	-9211
▁Müzesi	-9212
▁duruşmaya	-9213
▁Bulgaristan	-9214
▁hariç	-9215
▁tabut	-9216
TU	-9217
emiş	-9218
▁Tarihi	-9219
▁başardı	-9220
▁düzenli	-9221
▁Bürosu	-9222
▁evlerine	-9223
▁istemedi	-9224
▁71	-9225
▁Aksoy	-9226
▁kriter	-9227
ALAN	-9228
▁vit	-9229
▁yangına	-9230
▁İşçi	-9231
▁Bağdat	-9232
▁Gürsel	-9233
▁telsiz	-9234
▁girmesi	-9235
▁meslektaş	-9236
▁desteğiyle	-9237
▁Beni	-9238
ig	-9239
esin	-9240
▁oluşturulan	-9241
▁Maltepe	-9242
▁ağabeyi	-9243
▁transfer	-9244
▁görüşmeleri	-9245
ost	-9246
▁Duy	-9247
▁veda	-9248
derek	-9249
▁sinyal	-9250
▁sınırı	-9251
▁partiler	-9252
RA	-9253
▁çapında	-9254
lasik	-9255
▁evlat	-9256
▁fabrika	-9257
▁öncelikle	-9258
▁ürünlerin	-9259
▁çifti	-9260
▁oluşturduğu	-9261
naf	-9262
▁mart	-9263
iki	-9264
▁TAR	-9265
▁UYARI	-9266
▁yılları	-9267
▁Kırklareli	-9268
▁olumsuzluk	-9269
▁mekâ	-9270
▁deneyim	-9271
▁damar	-9272
▁Pr	-9273
▁atandı	-9274
▁gencin	-9275
▁dokunulmaz	-9276
▁Balkan	-9277
▁TUT	-9278
elebi	-9279
▁geçer	-9280
▁verip	-9281
▁tehlikesi	-9282
sus	-9283
▁1.2	-9284
▁dükkan	-9285
spor	-9286
▁vakıf	-9287
▁Cinayet	-9288
▁alkollü	-9289
▁bekledi	-9290
tiklerini	-9291
▁isterken	-9292
▁Yakın	-9293
▁mahal	-9294
▁Milliyet	-9295
▁Dub	-9296
▁tebrik	-9297
düklerini	-9298
ldi	-9299
ohn	-9300
▁Seb	-9301
▁dans	-9302
▁denge	-9303
▁Akdoğan	-9304
▁kendisinden	-9305
dağı	-9306
Hal	-9307
▁trafiği	-9308
▁çıkaran	-9309
çelik	-9310
▁varmış	-9311
▁ART	-9312
laşan	-9313
▁Star	-9314
▁geçişi	-9315
▁örneği	-9316
▁deşifre	-9317
▁FOTOĞRAF	-9318
▁görür	-9319
▁Ecevit	-9320
▁Uçak	-9321
▁faizi	-9322
▁Demokrat	-9323
▁sevgi	-9324
▁yatan	-9325
LET	-9326
▁metrelik	-9327
▁yatırımları	-9328
▁Burak	-9329
▁denilen	-9330
ansu	-9331
▁çalışmalara	-9332
▁olayların	-9333
▁yanıtı	-9334
▁derecede	-9335
▁gelmişti	-9336
iler	-9337
▁Fab	-9338
▁Dede	-9339
▁Kral	-9340
▁alet	-9341
▁İskender	-9342
ARB	-9343
▁poş	-9344
lıoğlu	-9345
paz	-9346
▁Vergi	-9347
▁bilgisini	-9348
ho	-9349
-100	-9350
▁Öğretmen	-9351
▁kullandıkları	-9352
▁day	-9353
şah	-9354
Suriye	-9355
▁pazarı	-9356
▁DUR	-9357
▁oğul	-9358
▁sayfa	-9359
▁geçmişte	-9360
▁aramalarda	-9361
ÖZ	-9362
kas	-9363
▁saldırısına	-9364
Hayır	-9365
▁Gal	-9366
▁silahlarla	-9367
▁çocuklarını	-9368
▁iflas	-9369
▁eyalet	-9370
▁girişinde	-9371
▁operasyonla	-9372
cük	-9373
▁reddetti	-9374
▁jandar	-9375
▁uçağın	-9376
▁bildi	-9377
▁video	-9378
▁ekonomiye	-9379
▁taşıdı	-9380
▁yurtdışı	-9381
▁geçtiğini	-9382
▁Akadem	-9383
üksel	-9384
▁prom	-9385
▁kup	-9386
▁İşletme	-9387
▁Birleşmiş	-9388
▁2017'	-9389
▁özelliği	-9390
▁Necdet	-9391
▁parasını	-9392
▁noktasına	-9393
hanesi	-9394
▁Saf	-9395
▁kalkan	-9396
▁arttığını	-9397
SE	-9398
▁08	-9399
▁çekici	-9400
▁Mühendis	-9401
▁oluşturan	-9402
emiyor	-9403
▁EK	-9404
▁tuv	-9405
▁Google	-9406
▁senaryo	-9407
ahhit	-9408
▁Kale	-9409
▁Altan	-9410
▁Çukurca	-9411
irin	-9412
▁Muharrem	-9413
▁rüzg	-9414
avut	-9415
▁Birçok	-9416
▁koleksiyon	-9417
▁Mini	-9418
▁eksi	-9419
▁Yayla	-9420
▁müfettiş	-9421
▁hızlandır	-9422
▁imalat	-9423
▁bulunacak	-9424
▁OLM	-9425
lamıyor	-9426
▁OP	-9427
ANBUL	-9428
▁dünkü	-9429
▁istemiş	-9430
lığındaki	-9431
▁metreküp	-9432
ğünde	-9433
▁seçimde	-9434
▁özellik	-9435
▁86	-9436
▁tarihinden	-9437
ezzin	-9438
▁anah	-9439
▁gelişmeleri	-9440
▁maaşı	-9441
▁kapıyı	-9442
▁kızının	-9443
▁idam	-9444
▁Boğazı	-9445
fsan	-9446
▁sürerken	-9447
▁kuruluşları	-9448
▁Nuri	-9449
▁Satış	-9450
▁sabaha	-9451
erkan	-9452
▁Kongresi	-9453
▁kurtardı	-9454
▁verirken	-9455
zan	-9456
▁BÖL	-9457
▁Dol	-9458
▁Cemaat	-9459
▁defalarca	-9460
▁9'	-9461
izden	-9462
▁soruya	-9463
▁hedefliyor	-9464
▁mensuplarına	-9465
▁Cadde	-9466
▁Group	-9467
▁ETTİ	-9468
göl	-9469
▁Mağ	-9470
▁okudu	-9471
▁Çol	-9472
▁ödülü	-9473
▁adıyla	-9474
▁Avustur	-9475
▁politikası	-9476
▁Fr	-9477
▁yuvar	-9478
▁Kum	-9479
▁çelik	-9480
▁kısmını	-9481
▁Cumartesi	-9482
▁Taraf	-9483
▁çukur	-9484
▁arasından	-9485
▁tartışmaya	-9486
▁bilgilendir	-9487
▁Konu	-9488
başkanı	-9489
▁imkânı	-9490
▁vergisi	-9491
▁tarafında	-9492
▁inen	-9493
SYM	-9494
imini	-9495
▁Musul	-9496
▁faaliyetleri	-9497
▁kurtarmak	-9498
▁tüfekle	-9499
▁adlandır	-9500
▁bayi	-9501
AND	-9502
▁sö	-9503
▁idare	-9504
▁artırmak	-9505
üsünü	-9506
▁kavgada	-9507
▁toplandı	-9508
▁ziyaretçi	-9509
▁duruşma	-9510
▁şarkıcı	-9511
▁alınmıştı	-9512
▁80'	-9513
▁79	-9514
▁DIŞ	-9515
▁Elvan	-9516
▁Akbank	-9517
▁grev	-9518
leşmesi	-9519
▁artması	-9520
ılacağını	-9521
memeli	-9522
kay	-9523
▁Not	-9524
▁gösterge	-9525
▁Silopi	-9526
▁yüzünü	-9527
▁miktarı	-9528
▁İdare	-9529
▁Dağıtım	-9530
▁bitki	-9531
▁yaşamak	-9532
▁Hükümeti	-9533
▁dünyadaki	-9534
▁görme	-9535
▁Muhammet	-9536
dris	-9537
▁yiy	-9538
▁mesai	-9539
▁açacak	-9540
▁saptan	-9541
▁Saldırı	-9542
▁güzergah	-9543
▁HABER	-9544
▁eylül	-9545
▁oluşuyor	-9546
YAR	-9547
▁8.	-9548
▁88	-9549
▁atlat	-9550
▁uyardı	-9551
▁dert	-9552
▁İcra	-9553
▁ÇALIŞ	-9554
▁akşamı	-9555
▁sıcaklık	-9556
▁insanlara	-9557
diy	-9558
▁omuz	-9559
▁havadan	-9560
▁sektörde	-9561
▁ilişkiler	-9562
▁yaşadığını	-9563
SM	-9564
▁endiş	-9565
▁karla	-9566
▁geçirmek	-9567
▁Şafak	-9568
PDK	-9569
▁yapılmasını	-9570
ganistan	-9571
▁gözyaşı	-9572
▁müracaat	-9573
▁Zekeriya	-9574
İF	-9575
▁belirleme	-9576
▁evlerinde	-9577
▁yolsuzluk	-9578
▁Geçmiş	-9579
▁düşünü	-9580
▁etmeyi	-9581
▁gittim	-9582
▁odasında	-9583
▁Yağışların	-9584
▁ust	-9585
▁şirketinin	-9586
▁John	-9587
▁anti	-9588
çık	-9589
▁Kuv	-9590
▁kardeşim	-9591
ody	-9592
▁BEL	-9593
ümüze	-9594
▁İmam	-9595
▁sınırları	-9596
▁kesildi	-9597
▁çıkarken	-9598
▁Ref	-9599
incisi	-9600
▁Yasin	-9601
▁bunlara	-9602
SAN	-9603
▁eseri	-9604
▁yakış	-9605
▁anlaşması	-9606
▁verildiğini	-9607
▁uzaktan	-9608
▁Otobüs	-9609
▁tutanak	-9610
MSF	-9611
▁oc	-9612
▁küfür	-9613
DER	-9614
▁adamları	-9615
▁söylemek	-9616
▁randev	-9617
▁seçenek	-9618
bilirsiniz	-9619
araç	-9620
▁abone	-9621
▁Yetkililer	-9622
▁hek	-9623
▁hizmetleri	-9624
ell	-9625
sten	-9626
lenmek	-9627
▁Direktörü	-9628
▁Milletler	-9629
▁isteyenler	-9630
▁ısı	-9631
▁kongre	-9632
▁yapılacağını	-9633
sey	-9634
▁Eb	-9635
▁DER	-9636
▁salı	-9637
▁Ağaoğlu	-9638
İLİ	-9639
▁idi	-9640
▁savunan	-9641
▁alg	-9642
▁etik	-9643
▁konul	-9644
▁yaşadıklarını	-9645
▁Abdul	-9646
▁Karayolu	-9647
▁ülkemizin	-9648
nur	-9649
▁Fed	-9650
▁YÜZDE	-9651
▁bırakan	-9652
▁diğeri	-9653
▁buluştu	-9654
▁devlete	-9655
▁işçiler	-9656
osyon	-9657
▁projede	-9658
▁gösterilen	-9659
▁ray	-9660
▁törenle	-9661
▁ulaşıma	-9662
▁dolandırıcılık	-9663
bildi	-9664
▁Onların	-9665
▁4.5	-9666
lerse	-9667
▁Kobani	-9668
▁üm	-9669
▁Giz	-9670
▁doğur	-9671
▁hayatta	-9672
▁haftalık	-9673
▁TOBB	-9674
▁restoran	-9675
▁ayın	-9676
▁geçmesi	-9677
▁toplantıya	-9678
▁Mavi	-9679
▁gidiş	-9680
▁İdris	-9681
▁ekonominin	-9682
des	-9683
▁cüz	-9684
▁fık	-9685
▁notunu	-9686
▁Garanti	-9687
▁bakalım	-9688
▁Kaymakamı	-9689
▁Çalık	-9690
▁zamanında	-9691
▁yargılandığı	-9692
BAŞ	-9693
anıp	-9694
azıt	-9695
▁kontrolden	-9696
▁performans	-9697
burnu	-9698
▁üssü	-9699
▁etmez	-9700
▁niçin	-9701
▁peşin	-9702
kanlık	-9703
▁Ülker	-9704
▁bizden	-9705
▁görecek	-9706
▁firmaların	-9707
amu	-9708
aması	-9709
▁muhat	-9710
▁kapısını	-9711
czacı	-9712
▁ülkesi	-9713
▁barikat	-9714
▁kentsel	-9715
▁dışarıda	-9716
▁potansiyel	-9717
sızın	-9718
▁örgütleri	-9719
▁belirli	-9720
▁tanınan	-9721
▁Ersoy	-9722
▁Rıza	-9723
▁Atilla	-9724
▁toplamda	-9725
▁ard	-9726
▁kurucu	-9727
▁Ola	-9728
▁yavru	-9729
▁fe	-9730
osman	-9731
▁Erkek	-9732
▁Topçu	-9733
▁verdiklerini	-9734
Sayın	-9735
▁bizde	-9736
▁Ataşehir	-9737
▁müvek	-9738
▁Serbest	-9739
▁Ziya	-9740
▁Erbil	-9741
▁kongr	-9742
):	-9743
▁araba	-9744
▁kentin	-9745
▁ÜZ	-9746
▁keyif	-9747
▁Sürücü	-9748
▁emanet	-9749
▁Muammer	-9750
▁edenler	-9751
▁Nit	-9752
▁uyum	-9753
▁yaptılar	-9754
▁Tuğgeneral	-9755
▁güvenliğini	-9756
▁8,	-9757
▁lay	-9758
mayınca	-9759
▁gündüz	-9760
▁Çelebi	-9761
▁Mon	-9762
▁şartları	-9763
▁ağırlıklı	-9764
▁seslendir	-9765
▁PO	-9766
▁Emlak	-9767
▁özgürlüğü	-9768
▁ALT	-9769
▁civarı	-9770
▁kıymet	-9771
▁tedbirli	-9772
45	-9773
İYLE	-9774
▁siyasete	-9775
dını	-9776
▁bakıyor	-9777
▁Haberleşme	-9778
▁Ata	-9779
▁SAL	-9780
▁otomobille	-9781
▁piyasalarda	-9782
▁kulüp	-9783
RU	-9784
▁92	-9785
▁kararlar	-9786
▁satılıyor	-9787
LIĞI	-9788
▁bon	-9789
▁atış	-9790
▁Berlin	-9791
▁sayede	-9792
▁incelemeye	-9793
▁gölg	-9794
▁bahçe	-9795
▁Serkan	-9796
▁amc	-9797
▁tutarı	-9798
▁AİHM	-9799
▁kula	-9800
▁yazılım	-9801
▁Ümraniye	-9802
iha	-9803
eyla	-9804
▁Tes	-9805
mızda	-9806
▁renkli	-9807
dükten	-9808
▁varan	-9809
▁kandır	-9810
▁peşinde	-9811
▁Dum	-9812
lıyorum	-9813
▁yiyecek	-9814
kel	-9815
ahit	-9816
▁ayının	-9817
▁yaya	-9818
▁kaynakları	-9819
fiye	-9820
▁Futbol	-9821
▁hassasiyet	-9822
▁01	-9823
▁almadan	-9824
▁bulama	-9825
▁geçmeye	-9826
▁yapılanması	-9827
▁çözümü	-9828
▁Afganistan	-9829
▁etmektedir	-9830
EDİ	-9831
omuz	-9832
rant	-9833
▁Ayv	-9834
▁tahr	-9835
▁tahsil	-9836
▁vesayet	-9837
MİR	-9838
▁şeref	-9839
üldüğünü	-9840
▁illerde	-9841
▁öngörülüyor	-9842
lumu	-9843
▁Seyhan	-9844
▁İSTANBUL	-9845
▁Aralarında	-9846
▁olmazsa	-9847
▁yolları	-9848
FE	-9849
fil	-9850
▁girmiş	-9851
▁kolaylaştır	-9852
▁Çap	-9853
▁BÜYÜK	-9854
▁nakit	-9855
▁propagandası	-9856
▁La	-9857
▁kalır	-9858
iba	-9859
▁Halis	-9860
▁Birleşik	-9861
▁Platformu	-9862
▁söylediler	-9863
▁ifadeler	-9864
EP	-9865
▁99	-9866
▁Bulut	-9867
▁profesyonel	-9868
▁devredi	-9869
▁yapacağını	-9870
▁sök	-9871
çarşı	-9872
▁Cerrah	-9873
▁temmuz	-9874
▁detaylı	-9875
▁Veysel	-9876
▁işlemler	-9877
▁siyaseti	-9878
▁yaşandığını	-9879
▁futbolcu	-9880
▁strateji	-9881
▁bilirkişi	-9882
▁yatırımlar	-9883
HAL	-9884
öken	-9885
▁kıyas	-9886
35	-9887
lit	-9888
▁durak	-9889
▁sendik	-9890
▁çiftçi	-9891
▁bilmiyorum	-9892
▁olmuyor	-9893
▁ticareti	-9894
▁operasyonun	-9895
▁pencer	-9896
▁pozitif	-9897
amızda	-9898
▁Bilal	-9899
▁kimseye	-9900
▁7.	-9901
kapı	-9902
▁Sad	-9903
▁mutfak	-9904
▁arkadan	-9905
▁görülecek	-9906
▁layık	-9907
▁üzüntü	-9908
▁Telefon	-9909
▁zamanlar	-9910
▁arayış	-9911
▁tahsis	-9912
▁felaket	-9913
▁uyarınca	-9914
▁suçlamasıyla	-9915
alya	-9916
culuk	-9917
▁öy	-9918
▁öte	-9919
▁mutabakat	-9920
▁ayağı	-9921
Kürt	-9922
▁rüşvet	-9923
▁Afet	-9924
▁yakınlarına	-9925
▁900	-9926
▁Def	-9927
ıra	-9928
▁Sinop	-9929
▁Girişim	-9930
▁kapsayan	-9931
▁başvurusu	-9932
ısal	-9933
▁cesaret	-9934
▁getirildiği	-9935
▁uydu	-9936
▁kırsalında	-9937
çay	-9938
▁teröre	-9939
▁çiftin	-9940
▁hapse	-9941
▁Brüksel	-9942
▁bisiklet	-9943
▁Arn	-9944
▁isimlerin	-9945
▁olabilecek	-9946
▁merm	-9947
▁Sedat	-9948
▁Tugay	-9949
▁Elbette	-9950
Avrup	-9951
▁Bostan	-9952
▁kullanımı	-9953
▁Us	-9954
▁Harp	-9955
▁işini	-9956
▁kullanıyor	-9957
▁kaldırılarak	-9958
▁Arif	-9959
kol	-9960
▁aşamasında	-9961
ÜM	-9962
▁ırk	-9963
çının	-9964
▁Yönetme	-9965
▁değinen	-9966
▁gönüllü	-9967
burg	-9968
▁Air	-9969
▁açıkladığı	-9970
▁yurti	-9971
asusluk	-9972
▁98	-9973
▁Olayda	-9974
▁tescil	-9975
▁dinamik	-9976
▁kredisi	-9977
azz	-9978
hayır	-9979
▁etapta	-9980
▁Üniversite	-9981
▁Vur	-9982
luğunda	-9983
▁Vergisi	-9984
▁listesinde	-9985
▁Şehircilik	-9986
▁Haş	-9987
▁Yerel	-9988
oper	-9989
▁Stan	-9990
▁Vadi	-9991
▁Kanal	-9992
▁bebeği	-9993
▁zul	-9994
▁tabl	-9995
▁yapıyorlar	-9996
▁derecelendirme	-9997
-50	-9998
▁Hadi	-9999
▁Ürün	-10000
▁Köprü	-10001
▁açmak	-10002
▁firari	-10003
▁ödeyecek	-10004
▁çoğunluğu	-10005
▁verg	-10006
▁litre	-10007
▁mecbur	-10008
ETT	-10009
▁Çolak	-10010
▁kitabı	-10011
▁yönetmen	-10012
▁işine	-10013
▁diyalog	-10014
▁yarattı	-10015
▁savaşı	-10016
vel	-10017
▁Sp	-10018
▁Tev	-10019
▁Kimi	-10020
▁vücut	-10021
▁sertif	-10022
▁koridor	-10023
▁işçilerin	-10024
▁fotoğrafları	-10025
▁Eur	-10026
▁çıkardığı	-10027
▁Denizi	-10028
▁çalışmak	-10029
▁namazının	-10030
▁Eker	-10031
▁İstatistik	-10032
ınızı	-10033
iğde	-10034
▁biliyorum	-10035
hisar	-10036
▁cevabını	-10037
▁kontrolünden	-10038
SEL	-10039
▁işlemlerin	-10040
▁uçtu	-10041
▁edilemez	-10042
▁yakalamak	-10043
beli	-10044
▁şarj	-10045
tırken	-10046
▁gücünü	-10047
▁gelişmekte	-10048
▁OD	-10049
ansa	-10050
▁milliyet	-10051
uydu	-10052
▁kurma	-10053
▁ülkelerine	-10054
çuk	-10055
▁Boş	-10056
▁yara	-10057
mayacağını	-10058
▁kaybolan	-10059
▁haklarını	-10060
▁ülkelerden	-10061
▁bekleme	-10062
Geç	-10063
▁87	-10064
▁Gem	-10065
▁Koş	-10066
irkin	-10067
▁Alanya	-10068
▁tarihine	-10069
▁Kıy	-10070
osunu	-10071
▁devi	-10072
▁Esnaf	-10073
▁okuma	-10074
▁Müezzin	-10075
▁nitelendir	-10076
▁ceph	-10077
▁programına	-10078
▁havay	-10079
▁miras	-10080
▁karıştı	-10081
▁partili	-10082
▁Fuarı	-10083
▁şimdiden	-10084
Tek	-10085
ncı	-10086
▁doğrusu	-10087
vey	-10088
▁DEĞİL	-10089
▁Haluk	-10090
▁şansı	-10091
▁sonuçlarını	-10092
meyiz	-10093
▁Kulübü	-10094
▁gençlik	-10095
▁bulunmadığını	-10096
▁ifadesine	-10097
▁öldürüldüğü	-10098
anız	-10099
▁cer	-10100
▁döner	-10101
▁zanlısı	-10102
▁Şef	-10103
▁seyr	-10104
ilmeye	-10105
▁demokrat	-10106
▁seferleri	-10107
usal	-10108
▁Keskin	-10109
▁Tip	-10110
▁Tuncay	-10111
▁aileleri	-10112
▁dönemlerde	-10113
▁konsep	-10114
▁sonuçlar	-10115
▁muhtar	-10116
▁ilerleyen	-10117
ğimi	-10118
▁kep	-10119
▁kurs	-10120
▁atıyor	-10121
▁Teşkilatı	-10122
▁bölgelerinde	-10123
LADI	-10124
▁ayağa	-10125
dükleri	-10126
▁Birkaç	-10127
▁dördüncü	-10128
▁otomobile	-10129
▁ülkemizde	-10130
▁Acaba	-10131
▁perde	-10132
▁adamın	-10133
▁projesinin	-10134
ınacak	-10135
▁giyim	-10136
▁hekim	-10137
▁depremin	-10138
!)	-10139
iral	-10140
▁Ort	-10141
▁Haliç	-10142
▁gruba	-10143
▁buluştur	-10144
▁Dİ	-10145
ERİNE	-10146
likçi	-10147
▁va	-10148
▁Dok	-10149
▁kına	-10150
▁Sarık	-10151
▁görüşmesi	-10152
▁nitelikli	-10153
▁bankası	-10154
▁istedim	-10155
▁aracının	-10156
▁Kırıkkale	-10157
16	-10158
▁Tos	-10159
ülmüş	-10160
▁babam	-10161
▁kuyruk	-10162
▁dilim	-10163
silvanya	-10164
parator	-10165
▁sürdürülebilir	-10166
▁ÖSYM	-10167
▁sabır	-10168
▁CN	-10169
temel	-10170
lacağı	-10171
▁hedefleniyor	-10172
▁çıkarılması	-10173
ınıp	-10174
▁GYO	-10175
▁patladı	-10176
▁Astsubay	-10177
▁Akıl	-10178
▁atık	-10179
▁Avustr	-10180
▁Olimpiyat	-10181
▁İlköğretim	-10182
▁Tez	-10183
▁yüzüne	-10184
▁alb	-10185
▁projeye	-10186
▁rahatsızlık	-10187
Par	-10188
▁aksine	-10189
▁görmüş	-10190
▁kayyum	-10191
▁05	-10192
koz	-10193
▁yapısı	-10194
▁istemiyor	-10195
▁Kapalıçarşı	-10196
MB	-10197
lacağını	-10198
▁talebini	-10199
▁Bi	-10200
▁şubat	-10201
eçi	-10202
etler	-10203
▁gerektiğine	-10204
luğun	-10205
▁Birlik	-10206
▁haftanın	-10207
ceğine	-10208
▁bahset	-10209
▁sipariş	-10210
▁çevrede	-10211
▁Toplantısı	-10212
▁ifadelerine	-10213
▁küt	-10214
▁Aksu	-10215
▁aşamada	-10216
▁Bağcılar	-10217
▁Yenikapı	-10218
▁roketatar	-10219
▁12'	-10220
▁Geb	-10221
▁Niye	-10222
▁misiniz	-10223
iyan	-10224
▁şerit	-10225
▁yangının	-10226
▁Çağlar	-10227
▁elebaşı	-10228
▁tabancayla	-10229
▁Mat	-10230
▁Hazır	-10231
▁iklim	-10232
▁tutun	-10233
▁gelmedi	-10234
▁öğrencilere	-10235
▁koyan	-10236
▁pişman	-10237
▁yolculuk	-10238
▁Süt	-10239
▁Yur	-10240
▁veriyoruz	-10241
▁Müezzinoğlu	-10242
▁HAL	-10243
▁çizgi	-10244
▁etkilen	-10245
▁Tol	-10246
▁tamamlanması	-10247
oskova	-10248
▁keşif	-10249
▁harika	-10250
▁işçinin	-10251
DÜR	-10252
▁silahı	-10253
▁notu	-10254
▁Sancak	-10255
▁alanlar	-10256
▁haberleşme	-10257
▁Pendik	-10258
▁azından	-10259
▁kullanılacak	-10260
▁Pet	-10261
eğmen	-10262
▁kanalı	-10263
▁İşadam	-10264
▁artırdı	-10265
▁kaybederken	-10266
▁müdahalenin	-10267
ciye	-10268
▁yör	-10269
bolu	-10270
▁olas	-10271
lerimi	-10272
▁Fit	-10273
osuna	-10274
▁Köse	-10275
▁kapısı	-10276
▁Programı	-10277
▁yasadışı	-10278
cistan	-10279
▁katkıda	-10280
▁bulundukları	-10281
▁GER	-10282
▁00	-10283
LARIN	-10284
tatör	-10285
▁Hangi	-10286
▁içeride	-10287
▁Denetleme	-10288
▁korunması	-10289
▁Ur	-10290
ekiz	-10291
▁türk	-10292
▁şeye	-10293
▁isteniyor	-10294
acaktır	-10295
▁Şam	-10296
▁karbon	-10297
▁traktör	-10298
▁hazırladı	-10299
▁İşbirliği	-10300
▁öldüğünü	-10301
▁Gelir	-10302
▁Niğde	-10303
▁istey	-10304
▁altyap	-10305
▁Oyunları	-10306
▁hattında	-10307
▁geleneksel	-10308
▁diyoruz	-10309
▁konunun	-10310
▁9.	-10311
▁fizik	-10312
eyhan	-10313
▁kağıt	-10314
▁plana	-10315
▁başını	-10316
▁başarıyla	-10317
▁çıkmıştı	-10318
▁başlangıç	-10319
▁doğusu	-10320
▁boğuldu	-10321
▁seçilmiş	-10322
▁sigortası	-10323
▁operasyonları	-10324
▁üyeliği	-10325
▁bölümünü	-10326
▁sektörüne	-10327
▁gol	-10328
▁Yüce	-10329
▁iyice	-10330
▁sağlandı	-10331
▁Pol	-10332
ınıza	-10333
▁bastır	-10334
▁yapmıştı	-10335
adikal	-10336
▁hayırlı	-10337
▁değişiyor	-10338
▁Motor	-10339
▁budur	-10340
▁olmasa	-10341
▁yapılmak	-10342
IP	-10343
▁93	-10344
şağı	-10345
▁port	-10346
▁Atina	-10347
▁zihin	-10348
▁kesinleş	-10349
▁memleket	-10350
▁Amas	-10351
▁deyince	-10352
▁düşerek	-10353
▁verilmesini	-10354
anç	-10355
▁Uludere	-10356
▁bariyer	-10357
urta	-10358
İLİR	-10359
lahlı	-10360
▁Arnavut	-10361
▁Korkmaz	-10362
▁96	-10363
ırak	-10364
▁194	-10365
▁fizi	-10366
Ankara	-10367
▁Hikmet	-10368
▁makinesi	-10369
▁temsilcisi	-10370
▁yakınlarının	-10371
▁13.	-10372
▁Göç	-10373
▁TOP	-10374
▁Bomb	-10375
LARINI	-10376
▁Akdağ	-10377
▁Raporda	-10378
▁yarışma	-10379
5),	-10380
▁Görmez	-10381
▁takıldı	-10382
▁konuştuk	-10383
▁kurumlar	-10384
-8	-10385
şar	-10386
▁DÖN	-10387
▁döktü	-10388
▁uydur	-10389
ref	-10390
rüb	-10391
▁Rah	-10392
Avrupa	-10393
▁istemeyen	-10394
ABD	-10395
▁Nas	-10396
▁yığ	-10397
▁olanak	-10398
cir	-10399
Allah	-10400
▁belirtilerek	-10401
adın	-10402
▁Hatip	-10403
▁azaldı	-10404
▁edince	-10405
▁oranları	-10406
▁Hizmetleri	-10407
▁uyu	-10408
▁cüzdan	-10409
▁mevkiinde	-10410
ura	-10411
▁reel	-10412
▁olmadığına	-10413
▁ödü	-10414
Büyük	-10415
▁atama	-10416
▁Kapısı	-10417
▁yargılama	-10418
▁tedbirler	-10419
▁yerleşim	-10420
▁beraberindeki	-10421
▁soruşturmasında	-10422
▁Üzer	-10423
▁Başak	-10424
▁11'	-10425
▁hata	-10426
▁mülk	-10427
▁Tedav	-10428
▁konteyn	-10429
▁raporunda	-10430
▁Üz	-10431
▁gündemde	-10432
▁yatırımla	-10433
▁ülkelerinde	-10434
▁bec	-10435
▁şikâyetçi	-10436
▁liranın	-10437
▁Karakolu	-10438
yaka	-10439
ansta	-10440
dırma	-10441
▁Erhan	-10442
▁deyip	-10443
▁minik	-10444
▁İhale	-10445
alp	-10446
dirgin	-10447
▁Abdur	-10448
▁yollar	-10449
abilmesi	-10450
▁sığınak	-10451
▁önlemek	-10452
▁yolcular	-10453
▁Başsavcılığınca	-10454
rık	-10455
▁taşıdığı	-10456
▁plastik	-10457
▁teminat	-10458
▁ALIN	-10459
sınlar	-10460
▁teşhis	-10461
▁anlayışı	-10462
▁MYK	-10463
▁suya	-10464
▁sevindir	-10465
▁hatırlatarak	-10466
▁Yor	-10467
▁bildiren	-10468
▁Avni	-10469
▁sarf	-10470
▁lehine	-10471
▁SAT	-10472
meyince	-10473
▁anlaya	-10474
▁görmez	-10475
▁ilişkilerin	-10476
▁Gökç	-10477
▁yerin	-10478
▁satışları	-10479
▁ayrıl	-10480
▁çağırdı	-10481
LANDI	-10482
dunuz	-10483
▁ulaşmak	-10484
RET	-10485
tah	-10486
▁binada	-10487
▁Tiyatro	-10488
▁kaçmaya	-10489
▁kökenli	-10490
land	-10491
▁uğrayan	-10492
▁adayları	-10493
▁Küçükçekmece	-10494
▁kullanılması	-10495
▁Egemen	-10496
▁ekonomisine	-10497
▁çekilişinde	-10498
▁beklediklerini	-10499
▁merh	-10500
▁çarparak	-10501
▁inceleyen	-10502
▁istek	-10503
▁Gökçek	-10504
asa	-10505
▁TE	-10506
darik	-10507
▁Ödülü	-10508
▁destekli	-10509
LİS	-10510
old	-10511
▁Kitap	-10512
▁asans	-10513
▁bulacak	-10514
▁yatırımcıların	-10515
▁arzu	-10516
▁geçit	-10517
▁eşinden	-10518
▁göstermek	-10519
▁talepleri	-10520
▁düzenlemeler	-10521
tüm	-10522
essüm	-10523
▁kayboldu	-10524
▁çalışanlar	-10525
▁Da	-10526
▁Büt	-10527
▁çıl	-10528
eğeni	-10529
▁Strat	-10530
▁buradaki	-10531
▁Leyla	-10532
▁yıllarca	-10533
▁binden	-10534
▁büyümesi	-10535
▁görevinden	-10536
▁89	-10537
luğunu	-10538
Özel	-10539
▁10,	-10540
▁Usta	-10541
▁egemen	-10542
▁KR	-10543
▁konak	-10544
▁nişan	-10545
▁yarattığı	-10546
Kim	-10547
▁gazi	-10548
etecek	-10549
▁başlık	-10550
▁çalışanların	-10551
▁Şüphelilerin	-10552
▁karışan	-10553
▁9,	-10554
▁tahrik	-10555
▁Nak	-10556
bahar	-10557
Bank	-10558
meliyiz	-10559
▁Piyade	-10560
▁uçakla	-10561
▁Festivali	-10562
laç	-10563
▁03	-10564
lesi	-10565
▁11.	-10566
▁arta	-10567
▁dalga	-10568
▁yapıya	-10569
▁beldesinde	-10570
▁OY	-10571
▁ÇOK	-10572
▁Numan	-10573
▁Moskova	-10574
▁ulaştığı	-10575
▁Çukurova	-10576
riye	-10577
▁Gelen	-10578
▁Bilgin	-10579
▁Fev	-10580
▁Bunları	-10581
▁yazısı	-10582
▁hayatın	-10583
▁sever	-10584
▁mücadelesi	-10585
▁130	-10586
▁Sön	-10587
manız	-10588
▁bayr	-10589
▁olmanın	-10590
▁Devletin	-10591
▁Don	-10592
▁KİM	-10593
▁Hakkı	-10594
▁Uygulama	-10595
▁zeytin	-10596
▁Fethiye	-10597
▁Faz	-10598
▁muhteşem	-10599
▁Engel	-10600
▁tatlı	-10601
▁düzenlen	-10602
▁ailelerine	-10603
OY	-10604
▁Tasarı	-10605
meyeceğini	-10606
▁gerçekleşecek	-10607
ple	-10608
▁yuv	-10609
▁çıkmaya	-10610
▁vurgulayarak	-10611
▁cansız	-10612
▁çoğunluk	-10613
olar	-10614
▁rev	-10615
tadır	-10616
▁randevu	-10617
▁indirimi	-10618
▁açıklarında	-10619
▁Hâkim	-10620
▁Konfer	-10621
▁numara	-10622
▁yapılarak	-10623
▁EL	-10624
kadir	-10625
▁Yoğun	-10626
▁global	-10627
▁kelime	-10628
▁polisleri	-10629
▁İstanbullu	-10630
▁kaynaklanan	-10631
▁Musa	-10632
▁füze	-10633
çıları	-10634
▁çıkışı	-10635
▁Nazlı	-10636
▁hareketli	-10637
▁belirlenmesi	-10638
▁buçuk	-10639
▁kulüb	-10640
ülürken	-10641
▁ulaşıldı	-10642
bür	-10643
aydın	-10644
▁kesti	-10645
▁anlamlı	-10646
▁hayatına	-10647
faf	-10648
ill	-10649
▁Bartın	-10650
▁Sitesi	-10651
▁olduğundan	-10652
▁Adası	-10653
▁Avusturya	-10654
Haber	-10655
▁ÇIKTI	-10656
▁ÖL	-10657
▁DEST	-10658
▁Pensilvanya	-10659
▁soruşturmayı	-10660
▁Fark	-10661
▁Yücel	-10662
▁döneme	-10663
▁Katılım	-10664
▁duyduğu	-10665
▁yapanlar	-10666
kul	-10667
▁ağırlık	-10668
▁projeyi	-10669
▁etmesini	-10670
LAM	-10671
▁BAŞK	-10672
halefet	-10673
▁birine	-10674
▁İzmit	-10675
tali	-10676
▁işyeri	-10677
üyoruz	-10678
▁gayet	-10679
▁kilometrelik	-10680
▁750	-10681
▁Lüb	-10682
▁ufak	-10683
▁kırdı	-10684
▁kızını	-10685
ilebilir	-10686
▁Gürcistan	-10687
▁ambulanslarla	-10688
▁raf	-10689
▁mısınız	-10690
▁sahipliği	-10691
▁ülkelerinin	-10692
▁02	-10693
▁Aktaş	-10694
▁işveren	-10695
▁koyduğu	-10696
▁arkadaşım	-10697
▁birbirinden	-10698
▁efendi	-10699
▁aranıyor	-10700
▁istiyorlar	-10701
▁oturdu	-10702
▁Zeybekci	-10703
▁Op	-10704
▁sü	-10705
▁arsa	-10706
▁kutlu	-10707
▁öğrenen	-10708
▁Şirketin	-10709
▁fişek	-10710
▁gruplar	-10711
▁pazartesi	-10712
▁oyununun	-10713
2),	-10714
edek	-10715
rası	-10716
▁muk	-10717
cımız	-10718
▁Alış	-10719
▁kurb	-10720
▁yerlere	-10721
▁kullanıl	-10722
▁Mis	-10723
▁vakti	-10724
▁Uludağ	-10725
▁Bö	-10726
▁Fo	-10727
▁kuyumcu	-10728
▁vereceği	-10729
▁çalışmanın	-10730
fuk	-10731
▁havada	-10732
▁ehliyet	-10733
▁şirkete	-10734
▁güçlükle	-10735
▁dağıtıldı	-10736
▁istedikleri	-10737
TUR	-10738
▁birey	-10739
▁disiplin	-10740
▁araştırmada	-10741
▁Eli	-10742
▁Atak	-10743
▁Pamuk	-10744
▁bölgeden	-10745
▁kamerası	-10746
▁Televizyon	-10747
▁gazeteciler	-10748
▁Ro	-10749
▁halkına	-10750
▁kararında	-10751
rarı	-10752
▁çevirdi	-10753
▁DOLAR	-10754
▁olurdu	-10755
▁sözünü	-10756
▁bunlardan	-10757
ARK	-10758
▁Dubai	-10759
▁Tuzla	-10760
▁yandı	-10761
▁1.3	-10762
▁etmeyen	-10763
▁törende	-10764
▁çekilişi	-10765
At	-10766
Si	-10767
▁Rak	-10768
▁spek	-10769
▁kalkın	-10770
▁mükelle	-10771
▁emniyete	-10772
▁iddialar	-10773
▁zanlının	-10774
▁İnsanlar	-10775
▁kaybettiğini	-10776
Ül	-10777
▁Nil	-10778
▁fiyatlarında	-10779
▁kaleme	-10780
ılabilir	-10781
▁metrobüs	-10782
▁başarısız	-10783
▁Rob	-10784
İnsan	-10785
▁kısmının	-10786
uluş	-10787
▁Gez	-10788
▁bazda	-10789
▁Portekiz	-10790
▁belgeleri	-10791
▁Mert	-10792
▁çizdi	-10793
▁anlamı	-10794
▁kurucusu	-10795
▁Soğ	-10796
▁eşiyle	-10797
▁Otomotiv	-10798
▁gelirken	-10799
▁kaldırdı	-10800
▁ettiğimiz	-10801
▁hiss	-10802
abilen	-10803
▁Burdur	-10804
▁aradan	-10805
▁bedelli	-10806
▁varlığı	-10807
▁tedirgin	-10808
▁koşulları	-10809
İz	-10810
▁hendek	-10811
▁hükümete	-10812
▁GİR	-10813
▁Lir	-10814
imden	-10815
▁Volkan	-10816
▁salonu	-10817
▁Yaşanan	-10818
▁öğretmeni	-10819
▁sözleşmeli	-10820
▁karayolunun	-10821
Ev	-10822
▁DAV	-10823
▁tutul	-10824
▁öğleden	-10825
▁hükmet	-10826
izmi	-10827
▁Ces	-10828
▁atanan	-10829
▁edilmesini	-10830
asın	-10831
▁Fah	-10832
▁Moody	-10833
dy	-10834
▁hedefliyoruz	-10835
▁Fen	-10836
ülerek	-10837
altında	-10838
▁sorular	-10839
▁iktidarı	-10840
▁kayıplara	-10841
▁bac	-10842
▁Beykoz	-10843
▁önlemler	-10844
7),	-10845
ECE	-10846
▁2002'	-10847
tor	-10848
▁Öğ	-10849
ülte	-10850
▁Con	-10851
doğdu	-10852
▁götürülen	-10853
18	-10854
On	-10855
▁pankart	-10856
aseb	-10857
abıta	-10858
▁Çınar	-10859
▁gelmez	-10860
▁çeyrekte	-10861
▁Dost	-10862
osunun	-10863
▁Berat	-10864
▁Konak	-10865
▁numarası	-10866
ağan	-10867
yorum	-10868
▁Nitekim	-10869
▁Şirketi	-10870
▁görevine	-10871
▁Cep	-10872
▁abon	-10873
▁kararlılık	-10874
biyat	-10875
▁teşkil	-10876
▁MİLYAR	-10877
▁bilimsel	-10878
▁BÖLG	-10879
▁arşiv	-10880
▁elektrikli	-10881
▁teröristlerce	-10882
ihai	-10883
ektaş	-10884
▁otelde	-10885
▁iddialarına	-10886
▁tansiyon	-10887
seydi	-10888
▁Hepsi	-10889
▁alınıyor	-10890
▁dükkâ	-10891
▁barındır	-10892
▁başvuran	-10893
19	-10894
burt	-10895
▁şehidin	-10896
▁bulunmuştu	-10897
▁Co	-10898
▁Kazım	-10899
▁Nor	-10900
▁izi	-10901
▁zek	-10902
layınca	-10903
▁nereden	-10904
▁hükümlü	-10905
▁olduğum	-10906
▁sıcaklığı	-10907
▁Ses	-10908
▁hukuka	-10909
▁Hrant	-10910
▁çekin	-10911
▁ortala	-10912
▁ortamı	-10913
.(	-10914
▁açarak	-10915
▁Otoyolu	-10916
▁söyledim	-10917
▁şunlar	-10918
........	-10919
▁korkunç	-10920
▁öldürmek	-10921
▁kapatılan	-10922
▁razı	-10923
▁dilekçe	-10924
▁öm	-10925
▁atöl	-10926
▁karşıladı	-10927
▁patlaması	-10928
▁promosyon	-10929
▁Baz	-10930
▁bahar	-10931
▁kaymakam	-10932
▁çam	-10933
aslan	-10934
▁ağız	-10935
▁97	-10936
▁otor	-10937
▁Toplu	-10938
▁Kontrol	-10939
▁düşünen	-10940
▁konular	-10941
▁yürüyen	-10942
▁müteahhit	-10943
TÜK	-10944
ülya	-10945
▁Pan	-10946
acaklar	-10947
▁çocuğunun	-10948
ekkürler	-10949
▁düğmeye	-10950
▁sunan	-10951
▁baştan	-10952
▁Hastalık	-10953
▁etkilenen	-10954
▁94	-10955
▁Söyle	-10956
▁bakıldığında	-10957
▁dili	-10958
▁Bozkurt	-10959
▁hükümetinin	-10960
▁CUM	-10961
▁Halkın	-10962
▁Olağan	-10963
▁oğlunu	-10964
▁verilmiş	-10965
▁öldürdüğü	-10966
imle	-10967
▁YÜK	-10968
▁aniden	-10969
▁esmesi	-10970
▁isterim	-10971
▁nakledi	-10972
aleri	-10973
▁sıkışan	-10974
▁bulunarak	-10975
▁hakimiyetini	-10976
▁KAZ	-10977
▁okulda	-10978
ronu	-10979
▁süs	-10980
▁Ekipler	-10981
▁oranını	-10982
▁tartışması	-10983
13	-10984
▁Süm	-10985
▁sevg	-10986
▁imzalan	-10987
▁Emeklilik	-10988
çinin	-10989
▁Yasa	-10990
▁heyec	-10991
▁sekiz	-10992
Başbakan	-10993
▁azalarak	-10994
▁hesabını	-10995
▁por	-10996
▁Kurmay	-10997
▁geldim	-10998
▁yayımlandı	-10999
▁arkadaşının	-11000
enç	-11001
ovasyon	-11002
tılacak	-11003
▁eğitime	-11004
▁sanıyor	-11005
▁hisseleri	-11006
elep	-11007
▁Pla	-11008
▁Dayan	-11009
▁ellerinde	-11010
▁katılımcı	-11011
söz	-11012
ğimde	-11013
▁Çarp	-11014
▁köyde	-11015
▁taraftar	-11016
▁Tipi	-11017
▁Aygün	-11018
▁tanesi	-11019
▁düştüğünü	-11020
İYET	-11021
▁diledi	-11022
▁gemisi	-11023
▁müdürlük	-11024
▁Müdürlüğünden	-11025
PR	-11026
hak	-11027
▁özet	-11028
▁çeliş	-11029
KUR	-11030
▁hayv	-11031
▁Sezer	-11032
▁Yakup	-11033
▁uğurlandı	-11034
Top	-11035
İDE	-11036
▁taahh	-11037
▁çirkin	-11038
▁biçim	-11039
▁hacmi	-11040
▁hurda	-11041
▁seven	-11042
▁birimleri	-11043
▁İHA	-11044
oyraz	-11045
umuzu	-11046
▁üzeri	-11047
▁cumartesi	-11048
▁öncelikli	-11049
▁ziyaretinde	-11050
LK	-11051
epsiyon	-11052
▁Çankırı	-11053
▁oturduğu	-11054
▁havalimanı	-11055
osunda	-11056
▁kesimlerinin	-11057
▁fiziki	-11058
▁kazandıran	-11059
▁GEN	-11060
▁gözet	-11061
▁hikay	-11062
lor	-11063
▁yapılır	-11064
▁haberini	-11065
▁vuran	-11066
▁açıyor	-11067
▁CD	-11068
▁Hes	-11069
siyet	-11070
▁asansör	-11071
▁konferans	-11072
▁Başsavcısı	-11073
ATA	-11074
▁öngören	-11075
▁firmaları	-11076
ea	-11077
▁Num	-11078
ILI	-11079
▁hepimiz	-11080
▁partiye	-11081
▁İrlanda	-11082
▁göndere	-11083
▁çarptırıldı	-11084
▁KAÇ	-11085
ıplak	-11086
▁malzemesi	-11087
▁sınırında	-11088
▁İhsanoğlu	-11089
▁kalbi	-11090
▁oranla	-11091
▁yöntemi	-11092
▁Ke	-11093
▁imar	-11094
▁aynen	-11095
▁efsan	-11096
▁istedik	-11097
▁Hastanesinde	-11098
▁cen	-11099
▁Fabrik	-11100
lamenter	-11101
▁Vatandaşlar	-11102
kö	-11103
▁Tav	-11104
düstr	-11105
▁fren	-11106
▁Yasası	-11107
▁tatili	-11108
▁Halkbank	-11109
▁engellemek	-11110
▁memnuniyet	-11111
▁.	-11112
KCK	-11113
ida	-11114
larınız	-11115
▁Limanı	-11116
eceklerini	-11117
▁çalıştıklarını	-11118
8),	-11119
▁Ruh	-11120
▁çocuğa	-11121
▁dünyayı	-11122
lerimizde	-11123
▁Anıt	-11124
▁kaynaklı	-11125
▁İnceleme	-11126
▁çocuğunu	-11127
▁yakalanarak	-11128
MAK	-11129
▁2,5	-11130
TIR	-11131
Yıl	-11132
üse	-11133
▁zorlu	-11134
▁Üretim	-11135
▁Görüntü	-11136
ıya	-11137
▁180	-11138
dinin	-11139
▁şehr	-11140
▁adımı	-11141
arkotik	-11142
▁Komitesi	-11143
▁vermiyor	-11144
ehan	-11145
▁Ölüm	-11146
▁şehrin	-11147
▁dolarla	-11148
▁Nevşehir	-11149
▁Şev	-11150
▁çözül	-11151
▁sözleriyle	-11152
▁festival	-11153
▁saldırıları	-11154
▁Hülya	-11155
▁meden	-11156
▁öğrendik	-11157
▁sigortalı	-11158
▁alınıp	-11159
▁HAS	-11160
▁pus	-11161
▁bozul	-11162
▁yitiren	-11163
▁yaraladı	-11164
▁elden	-11165
▁önder	-11166
▁Ferhat	-11167
▁çıkmaz	-11168
▁Şik	-11169
▁Gökçe	-11170
melerini	-11171
▁arkasından	-11172
▁biy	-11173
lıyoruz	-11174
▁sektöre	-11175
▁daral	-11176
▁uzmanlar	-11177
▁sorgulama	-11178
▁Cumhurbaşkan	-11179
beyli	-11180
▁bindir	-11181
▁başvuruda	-11182
▁tartıştığı	-11183
▁kuruluşlarının	-11184
▁Kamp	-11185
▁Kuveyt	-11186
▁vatandaşa	-11187
▁tarihlerinde	-11188
▁emlak	-11189
▁kenti	-11190
▁döndür	-11191
ano	-11192
▁Pal	-11193
▁gözyaşlarına	-11194
▁ekim	-11195
▁stok	-11196
▁bıraktığı	-11197
▁yapabilecek	-11198
▁2-	-11199
▁dede	-11200
▁kuşak	-11201
▁uzlaşma	-11202
▁faş	-11203
▁bankaya	-11204
alın	-11205
cunun	-11206
▁TMSF	-11207
▁önemi	-11208
▁SALDIR	-11209
▁kişiyle	-11210
▁söylemiş	-11211
▁Hükümetin	-11212
▁beklentisi	-11213
Gün	-11214
▁140	-11215
▁kuyu	-11216
▁Fikri	-11217
▁yerleri	-11218
▁dolandırıcı	-11219
▁Esenyurt	-11220
▁edileceği	-11221
▁Çocu	-11222
lamıştı	-11223
▁yazmış	-11224
▁Havaalanı	-11225
▁Kürtler	-11226
▁fiyatlar	-11227
▁sürdüğünü	-11228
▁midir	-11229
▁gelişen	-11230
▁sıfatıyla	-11231
▁bağlantısı	-11232
9),	-11233
İNİN	-11234
▁almayı	-11235
▁baskını	-11236
larımızla	-11237
▁başlaması	-11238
▁işleme	-11239
14	-11240
▁göze	-11241
▁soya	-11242
amadığı	-11243
▁yılını	-11244
▁bazında	-11245
AHA	-11246
ımına	-11247
▁konvoy	-11248
▁mülteci	-11249
▁dakikada	-11250
▁Avustralya	-11251
ATIR	-11252
pole	-11253
▁bıç	-11254
▁Tepe	-11255
lanır	-11256
▁vuruldu	-11257
▁paraları	-11258
▁ulaştığını	-11259
▁feci	-11260
▁Times	-11261
▁şantaj	-11262
▁havanın	-11263
▁mesajlar	-11264
▁edilmesine	-11265
▁uyguladığı	-11266
▁ikiz	-11267
▁SAV	-11268
▁Filiz	-11269
▁katma	-11270
▁savcının	-11271
▁artırılması	-11272
▁Bence	-11273
bede	-11274
▁Hafta	-11275
▁ikiye	-11276
▁vas	-11277
▁tavan	-11278
▁tecrüb	-11279
▁patronu	-11280
3),	-11281
▁derdi	-11282
eet	-11283
▁Biraz	-11284
▁doktora	-11285
▁muhtemel	-11286
6),	-11287
▁ağrı	-11288
▁Saadet	-11289
▁Çiftçi	-11290
▁Bayburt	-11291
▁ifadesinin	-11292
▁Bahçelievler	-11293
föy	-11294
▁başkanlığı	-11295
ampole	-11296
▁ülkedeki	-11297
ebap	-11298
emeyecek	-11299
▁izinsiz	-11300
▁uçakları	-11301
▁öğrencinin	-11302
▁Sami	-11303
▁felç	-11304
çıların	-11305
▁kızları	-11306
▁millete	-11307
sh	-11308
ültü	-11309
▁Somali	-11310
▁kamyonet	-11311
▁tamamını	-11312
▁biliniyor	-11313
▁Vadisi	-11314
▁gazetecinin	-11315
▁AFAD	-11316
▁KİŞİ	-11317
devlet	-11318
▁eylemleri	-11319
▁mahkemede	-11320
4),	-11321
ity	-11322
▁Doğum	-11323
▁binin	-11324
▁faktör	-11325
▁arkadaşlarının	-11326
hay	-11327
-200	-11328
salar	-11329
▁laflar	-11330
Eski	-11331
▁sanığı	-11332
▁verdiler	-11333
▁yarısında	-11334
▁sigar	-11335
▁ülkemiz	-11336
▁Sekreter	-11337
▁yıllarında	-11338
sman	-11339
▁nisan	-11340
▁piyasalar	-11341
1),	-11342
abiliriz	-11343
▁gerginlik	-11344
▁Referandum	-11345
▁işadamları	-11346
▁teröristlere	-11347
mel	-11348
PO	-11349
▁Suçlar	-11350
mah	-11351
klarını	-11352
▁isteği	-11353
▁kuvvette	-11354
▁vurularak	-11355
▁Karayolları	-11356
▁hele	-11357
▁gündemine	-11358
▁saldırısında	-11359
izmin	-11360
▁isteye	-11361
▁birinde	-11362
▁tutuyor	-11363
ıbbi	-11364
▁Sün	-11365
inizi	-11366
▁mezunu	-11367
▁çıkınca	-11368
▁resmen	-11369
▁düşürdü	-11370
▁kumar	-11371
▁bölgesindeki	-11372
Ön	-11373
sch	-11374
diğimiz	-11375
▁Gayrimenkul	-11376
▁Kuzu	-11377
Demokr	-11378
▁büyümeye	-11379
Ama	-11380
bel	-11381
▁Bilecik	-11382
▁sıradan	-11383
AMAN	-11384
asip	-11385
▁helal	-11386
▁benden	-11387
▁dışarıdan	-11388
▁yaşı	-11389
▁miydi	-11390
▁eşya	-11391
▁yapılmasına	-11392
AKİ	-11393
▁okulu	-11394
▁kalktı	-11395
▁SSK	-11396
lenmeye	-11397
▁arayıp	-11398
bistan	-11399
▁artar	-11400
▁gününe	-11401
▁korucu	-11402
▁kadınlara	-11403
ozy	-11404
▁Ed	-11405
▁160	-11406
▁Fey	-11407
▁fes	-11408
▁Hisar	-11409
▁limit	-11410
▁bulduğu	-11411
▁evinden	-11412
▁tedarik	-11413
▁kurumları	-11414
tecek	-11415
▁tavuk	-11416
▁Amasya	-11417
▁başlığı	-11418
▁coğrafy	-11419
▁yetkisi	-11420
▁Üçüncü	-11421
▁aylarda	-11422
▁Mobil	-11423
▁sahneye	-11424
▁süresinin	-11425
res	-11426
▁seri	-11427
▁sayfalık	-11428
▁Üssü	-11429
▁Demek	-11430
▁çıkarma	-11431
▁yansıyan	-11432
▁göstergesi	-11433
▁Zeytinburnu	-11434
▁yaşamaya	-11435
▁Gölü	-11436
▁muam	-11437
▁oturum	-11438
▁Kırşehir	-11439
▁yapacaklarını	-11440
Siyas	-11441
▁2002	-11442
▁şükür	-11443
▁korkut	-11444
▁haftaya	-11445
▁konumunda	-11446
▁yaşadık	-11447
▁önemlisi	-11448
▁Ez	-11449
amaş	-11450
ebilmek	-11451
▁dediğini	-11452
▁bulunuldu	-11453
▁Yat	-11454
uştum	-11455
▁mayıs	-11456
▁torunu	-11457
▁firar	-11458
▁değerlendirilen	-11459
sar	-11460
rakya	-11461
▁seçen	-11462
▁yaktı	-11463
▁izliyor	-11464
▁girdiğini	-11465
-15	-11466
akâr	-11467
▁Toplantıda	-11468
düzü	-11469
▁kanseri	-11470
▁ediyordu	-11471
▁İkin	-11472
▁katına	-11473
▁sesini	-11474
▁Açıl	-11475
▁diyordu	-11476
▁puandan	-11477
▁Rad	-11478
▁niş	-11479
▁pik	-11480
▁Kağıt	-11481
▁çifte	-11482
▁kendilerinin	-11483
Daha	-11484
▁gidil	-11485
▁Global	-11486
▁Peygamber	-11487
▁çıkışında	-11488
▁tedbirleri	-11489
▁müsa	-11490
▁kopar	-11491
▁labor	-11492
▁bankaları	-11493
▁süresince	-11494
ia	-11495
▁İM	-11496
▁Kamer	-11497
▁Canikli	-11498
▁hort	-11499
▁alımı	-11500
gatif	-11501
▁Uslu	-11502
larımı	-11503
▁takib	-11504
▁taşıt	-11505
▁devriye	-11506
▁harcama	-11507
ach	-11508
ecik	-11509
ubuk	-11510
▁şarampole	-11511
ebileceğini	-11512
▁söylüyorum	-11513
tele	-11514
▁enkaz	-11515
▁tuvalet	-11516
ayeti	-11517
▁adil	-11518
▁Zorlu	-11519
▁kesen	-11520
▁büyüdü	-11521
▁Sevdiğim	-11522
▁kaynaklarından	-11523
Kız	-11524
▁uyku	-11525
▁sıraya	-11526
▁tarihten	-11527
▁sürücünün	-11528
▁Ef	-11529
▁DNA	-11530
ERASYON	-11531
▁Kalkanı	-11532
▁ifadelere	-11533
▁üyelerine	-11534
▁serin	-11535
▁anahtar	-11536
▁savcısı	-11537
▁yeterince	-11538
kom	-11539
▁Avcılar	-11540
▁Marmaray	-11541
▁yoğunlaş	-11542
▁sunulacak	-11543
▁uyarısında	-11544
▁kaliteli	-11545
▁uzmanları	-11546
▁sistemleri	-11547
▁karayolunda	-11548
▁Meral	-11549
▁Mevcut	-11550
▁maskeli	-11551
▁gösterdiğini	-11552
▁Tanı	-11553
▁Olayı	-11554
▁Cezaev	-11555
▁askere	-11556
▁kötüye	-11557
▁Çakmak	-11558
▁kaçarak	-11559
▁Şampiyon	-11560
BİR	-11561
▁ispat	-11562
▁karakter	-11563
işe	-11564
geli	-11565
▁Gebze	-11566
▁Sönmez	-11567
▁üreticisi	-11568
yur	-11569
▁Toy	-11570
▁gerilim	-11571
▁toplantısına	-11572
İKA	-11573
▁Je	-11574
kons	-11575
▁Aky	-11576
▁başlar	-11577
▁düşmüş	-11578
▁olmasından	-11579
▁1-	-11580
allı	-11581
▁Tanrı	-11582
▁hayli	-11583
▁öfke	-11584
▁silin	-11585
▁Ailesi	-11586
▁katkısı	-11587
▁tutulan	-11588
▁vurarak	-11589
▁kullanılıyor	-11590
▁koz	-11591
all	-11592
▁koyun	-11593
▁Hastane	-11594
▁iv	-11595
▁şov	-11596
▁Okan	-11597
▁nüfusu	-11598
▁samimi	-11599
▁takvim	-11600
ÜT	-11601
tip	-11602
▁doğumlu	-11603
▁kayıtları	-11604
tıp	-11605
▁(40	-11606
iyenin	-11607
▁Fitch	-11608
▁sandı	-11609
▁Şükrü	-11610
▁devret	-11611
▁Konuyla	-11612
▁sesleri	-11613
▁Bölgesel	-11614
▁Büyükelçi	-11615
▁tutukluluk	-11616
▁yolculuğuna	-11617
▁çor	-11618
takım	-11619
▁kabin	-11620
▁rehin	-11621
▁Ona	-11622
▁mütte	-11623
▁Person	-11624
▁endeks	-11625
▁iletti	-11626
▁birbirlerine	-11627
▁göğs	-11628
▁roman	-11629
▁mesafe	-11630
▁bulunma	-11631
asal	-11632
▁aştı	-11633
▁belirlenecek	-11634
▁Dö	-11635
adüf	-11636
verdi	-11637
▁canı	-11638
▁Yönetmeni	-11639
▁görevlilerinin	-11640
top	-11641
▁kılı	-11642
▁uçur	-11643
▁sandal	-11644
▁laborat	-11645
lülük	-11646
▁Komşu	-11647
▁Selam	-11648
▁binasına	-11649
▁yılların	-11650
▁kardeşler	-11651
▁arkadaşlar	-11652
sür	-11653
▁Özg	-11654
▁mükellef	-11655
▁söylemişti	-11656
epe	-11657
ule	-11658
duktan	-11659
rahman	-11660
▁Yerli	-11661
▁bağlayan	-11662
EDEF	-11663
▁Yazar	-11664
ational	-11665
▁örgütlerinin	-11666
yü	-11667
DIM	-11668
Yap	-11669
LARA	-11670
isse	-11671
▁TAM	-11672
Böyle	-11673
▁Özlem	-11674
▁yaşına	-11675
Tur	-11676
ica	-11677
▁(20	-11678
▁YER	-11679
▁yazısında	-11680
▁yanıl	-11681
▁taşımak	-11682
Çocuk	-11683
▁Aday	-11684
24	-11685
veç	-11686
▁izn	-11687
▁cihazı	-11688
ezlek	-11689
▁Köşk	-11690
▁kolu	-11691
▁özgü	-11692
▁etnik	-11693
▁konuları	-11694
▁kullanılamaz	-11695
kesi	-11696
amanın	-11697
▁Başta	-11698
▁ederiz	-11699
▁ilçeye	-11700
arlar	-11701
▁ölüme	-11702
▁Uzmanı	-11703
▁bulunmayan	-11704
▁yatırımcılar	-11705
▁faaliyetlerini	-11706
İlk	-11707
▁DÜN	-11708
▁içecek	-11709
▁zanlılar	-11710
▁çalışacak	-11711
AAT	-11712
ININ	-11713
▁Pak	-11714
▁İşin	-11715
▁tabir	-11716
▁Fikret	-11717
▁Salonu	-11718
▁Kadınlar	-11719
▁girişimci	-11720
SKİ	-11721
İki	-11722
▁yı	-11723
este	-11724
▁ani	-11725
▁düzel	-11726
▁etmem	-11727
▁haziran	-11728
▁emri	-11729
▁tamir	-11730
▁Trakya	-11731
▁görüyorum	-11732
▁kontrollü	-11733
17	-11734
unum	-11735
▁Anal	-11736
▁gereğ	-11737
▁kutsal	-11738
▁Gazeteci	-11739
▁tutarında	-11740
HUR	-11741
▁"3	-11742
▁AĞ	-11743
avir	-11744
▁duydu	-11745
▁moral	-11746
▁işçisi	-11747
▁Kazakistan	-11748
kiyi	-11749
▁PTT	-11750
▁Gelin	-11751
▁suçlamaları	-11752
▁MET	-11753
▁milyonu	-11754
▁yapılanmasına	-11755
▁Lübnan	-11756
▁gelmeye	-11757
▁İsa	-11758
▁imaj	-11759
▁kuzeydoğu	-11760
▁yerlerinde	-11761
Kendi	-11762
▁Yahudi	-11763
ris	-11764
▁Gu	-11765
▁KÖ	-11766
▁ATM	-11767
▁masum	-11768
▁yakında	-11769
mayacağız	-11770
▁Bunlardan	-11771
ava	-11772
▁KAM	-11773
sından	-11774
▁ertesi	-11775
▁merkezinin	-11776
Rus	-11777
▁Müt	-11778
▁ine	-11779
▁ziyarete	-11780
çısı	-11781
▁dolay	-11782
▁haberde	-11783
ümüzü	-11784
▁potansiye	-11785
▁telefonda	-11786
▁okut	-11787
▁sokt	-11788
▁Başçı	-11789
▁YAPIL	-11790
▁lastik	-11791
▁yazıyor	-11792
▁sahiplerine	-11793
▁yaşadıkları	-11794
çam	-11795
▁YAN	-11796
▁pusu	-11797
NIN	-11798
▁OR	-11799
▁ısın	-11800
▁Sabri	-11801
▁yapılırken	-11802
atörü	-11803
▁ölçek	-11804
▁Önemli	-11805
▁çiftinin	-11806
▁şahıslar	-11807
▁Çetinkaya	-11808
▁yargılanmak	-11809
▁Kıyı	-11810
▁Alper	-11811
▁OPERASYON	-11812
▁sığ	-11813
Artık	-11814
çılığı	-11815
▁göçük	-11816
▁götüren	-11817
▁söyledik	-11818
SP	-11819
arka	-11820
▁odaklı	-11821
▁edebilir	-11822
▁Nar	-11823
▁rob	-11824
▁Bizi	-11825
▁karma	-11826
▁öğrendim	-11827
▁görüşmelerin	-11828
▁12.	-11829
▁kararla	-11830
▁puanlık	-11831
▁Savcılar	-11832
▁Uzmanlar	-11833
▁seviyede	-11834
▁edecektir	-11835
▁müdahalesi	-11836
▁yumurta	-11837
▁TES	-11838
▁polislere	-11839
,"	-11840
▁yakını	-11841
sika	-11842
▁girer	-11843
▁nihai	-11844
▁Komando	-11845
▁düşüşle	-11846
▁sitesinden	-11847
▁seviyeye	-11848
kusuz	-11849
▁muaf	-11850
▁Silvan	-11851
▁kumpas	-11852
▁etrafında	-11853
▁Ov	-11854
yoruz	-11855
▁Altı	-11856
▁zafer	-11857
▁kişileri	-11858
Gör	-11859
▁CEZ	-11860
▁Frank	-11861
▁Çoban	-11862
▁peşine	-11863
▁sevinç	-11864
▁Saldırıda	-11865
▁akla	-11866
▁evini	-11867
▁sloganı	-11868
▁faydalan	-11869
▁çizg	-11870
▁Şeyh	-11871
▁2006'	-11872
▁girişi	-11873
▁belgeler	-11874
▁incelemenin	-11875
ektif	-11876
▁kesilen	-11877
iliş	-11878
▁Kayı	-11879
▁Devrim	-11880
▁Gökçen	-11881
▁listesi	-11882
▁gözyaşları	-11883
▁şüphelilerden	-11884
TSK	-11885
▁Asıl	-11886
▁aldıktan	-11887
▁450	-11888
▁final	-11889
▁Kırmızı	-11890
▁havaalan	-11891
▁karakola	-11892
▁apartmanın	-11893
▁yapılabilir	-11894
Teş	-11895
▁Üye	-11896
▁saatler	-11897
▁beklediği	-11898
ddin	-11899
▁güv	-11900
▁Kalp	-11901
▁doğdu	-11902
▁yumruk	-11903
Eğer	-11904
avat	-11905
▁Nik	-11906
▁str	-11907
▁Yılın	-11908
▁şahsı	-11909
▁Güngör	-11910
▁Roma	-11911
▁Sert	-11912
▁biten	-11913
ürek	-11914
▁sebze	-11915
lenebilir	-11916
▁takla	-11917
▁çaldı	-11918
▁Tebessüm	-11919
▁seçimler	-11920
▁çarpması	-11921
▁Geri	-11922
imizden	-11923
mabahçe	-11924
▁Cenaze	-11925
▁OLACAK	-11926
▁kazanın	-11927
▁Lütfi	-11928
▁sanal	-11929
▁bununla	-11930
ünt	-11931
▁Ric	-11932
ddenin	-11933
▁Eczacı	-11934
▁kurumu	-11935
▁rüzgâr	-11936
▁girmeye	-11937
▁Tunus	-11938
▁bahan	-11939
▁hanım	-11940
▁şimdiye	-11941
▁Reyhan	-11942
mayacağı	-11943
▁geçerken	-11944
▁Ereğ	-11945
▁verin	-11946
Yİ	-11947
▁Sib	-11948
▁Esenler	-11949
▁muhatap	-11950
▁etkiledi	-11951
▁vereceğiz	-11952
ann	-11953
▁arız	-11954
▁derhal	-11955
▁terörü	-11956
▁Fiyat	-11957
▁yedek	-11958
▁Cevdet	-11959
▁başkent	-11960
türü	-11961
mayız	-11962
▁çanta	-11963
▁demokrasinin	-11964
▁sıçra	-11965
▁tayin	-11966
▁birileri	-11967
▁HAY	-11968
▁paniğe	-11969
▁Temsilcisi	-11970
▁sorunların	-11971
EKİ	-11972
feder	-11973
rist	-11974
▁çür	-11975
sunun	-11976
▁halı	-11977
▁bayan	-11978
▁titiz	-11979
mo	-11980
alam	-11981
▁çöktü	-11982
▁olduktan	-11983
▁önemlidir	-11984
▁çatışmalar	-11985
▁Faiz	-11986
▁Hudut	-11987
95	-11988
Siz	-11989
▁kime	-11990
▁heykel	-11991
▁konuşmak	-11992
▁lez	-11993
▁17-25	-11994
▁Sürey	-11995
▁dersi	-11996
▁uzanan	-11997
▁şeffaf	-11998
ydu	-11999
saat	-12000
▁diy	-12001
▁sof	-12002
▁dürüst	-12003
LAT	-12004
▁Şi	-12005
▁kıdem	-12006
▁vasıt	-12007
▁gelişim	-12008
▁okullar	-12009
▁seyreden	-12010
▁ilköğretim	-12011
UY	-12012
kik	-12013
ibot	-12014
▁Beşir	-12015
▁onunla	-12016
▁dinledi	-12017
▁Öğrenci	-12018
raj	-12019
▁hacm	-12020
▁koştu	-12021
▁Havacılık	-12022
▁ameliyatı	-12023
▁provokasyon	-12024
▁Tunç	-12025
▁alakalı	-12026
▁kahvaltı	-12027
▁sürücüler	-12028
▁Eşi	-12029
▁KUL	-12030
▁geleni	-12031
odu	-12032
▁13'	-12033
▁Şerif	-12034
ağımsız	-12035
▁klasik	-12036
▁açılıyor	-12037
▁kamuoyunda	-12038
▁yel	-12039
abiha	-12040
▁delik	-12041
operatif	-12042
TR	-12043
▁mim	-12044
▁Apple	-12045
▁kanat	-12046
▁kurtu	-12047
▁sayın	-12048
▁sözlü	-12049
▁dönmek	-12050
▁milleti	-12051
▁Gümüşhane	-12052
▁salonunda	-12053
ore	-12054
umuzun	-12055
▁arındır	-12056
▁şiddetle	-12057
▁hazırlandı	-12058
▁gelişmelerin	-12059
▁dele	-12060
emizde	-12061
▁dönüp	-12062
▁mikro	-12063
▁nikâh	-12064
▁değerinde	-12065
cit	-12066
▁Net	-12067
▁HA	-12068
▁bilanç	-12069
▁uzantı	-12070
GAR	-12071
▁Evde	-12072
▁Bizde	-12073
▁Tuncel	-12074
▁Hoc	-12075
▁EPDK	-12076
▁Yaşam	-12077
lamadan	-12078
▁ibadet	-12079
▁etmeleri	-12080
▁Akademisi	-12081
▁Fuar	-12082
▁post	-12083
▁yazıda	-12084
▁zev	-12085
▁ŞEH	-12086
▁Sendik	-12087
şik	-12088
ılmalı	-12089
▁sorumlulu	-12090
▁edeceklerini	-12091
▁Çiğ	-12092
▁aldat	-12093
▁aydan	-12094
▁suyun	-12095
▁piyade	-12096
▁savcılar	-12097
▁Gerçekten	-12098
▁büyüklüğü	-12099
▁mağduriyet	-12100
bağ	-12101
amin	-12102
▁göl	-12103
▁Nöbet	-12104
▁borçlanma	-12105
Mil	-12106
▁etsin	-12107
▁aktarı	-12108
▁sertifik	-12109
▁büyümenin	-12110
▁farklılık	-12111
▁kurumların	-12112
▁atmak	-12113
▁adının	-12114
▁organiz	-12115
▁konuşması	-12116
kâr	-12117
ırt	-12118
atay	-12119
▁Bahç	-12120
▁açlık	-12121
ment	-12122
▁Dam	-12123
▁Tüf	-12124
▁HEDEF	-12125
▁ithalatı	-12126
▁yoğunluk	-12127
▁taşıyacak	-12128
üğü	-12129
▁çuv	-12130
▁Sezgin	-12131
▁Büyükelçiliği	-12132
▁04	-12133
üğün	-12134
▁tatb	-12135
▁infil	-12136
▁Kıymet	-12137
▁muayene	-12138
▁uğradığı	-12139
▁tartışmalar	-12140
▁Ayr	-12141
▁Lok	-12142
▁NAS	-12143
▁kıv	-12144
▁DAHA	-12145
▁Evli	-12146
▁taşeron	-12147
▁yaşıyoruz	-12148
▁demokrasiye	-12149
▁To	-12150
▁BULU	-12151
▁Tesi	-12152
▁pist	-12153
▁kanlar	-12154
▁yaratı	-12155
▁cezaevi	-12156
▁Hastaneye	-12157
▁Abdurrahman	-12158
▁SPK	-12159
eçhul	-12160
▁kürsü	-12161
▁testi	-12162
▁mektub	-12163
▁bırakarak	-12164
▁üslu	-12165
▁Çinli	-12166
▁koyuyor	-12167
▁örgütsel	-12168
▁İşadamları	-12169
El	-12170
-10	-12171
biz	-12172
aşnikof	-12173
▁toplumu	-12174
▁yollarla	-12175
▁ödenecek	-12176
▁çalışıyorlar	-12177
▁Nes	-12178
mazsa	-12179
▁lojistik	-12180
▁fotoğrafını	-12181
▁MERK	-12182
▁Bebek	-12183
▁verileri	-12184
▁çağrılan	-12185
▁mide	-12186
▁HARİT	-12187
▁korum	-12188
▁sızan	-12189
madılar	-12190
▁çarpan	-12191
▁etmiştir	-12192
▁iskele	-12193
▁eti	-12194
▁ille	-12195
▁rastlan	-12196
▁yaşından	-12197
ente	-12198
▁kablo	-12199
▁Başvur	-12200
▁borcunu	-12201
▁edinilen	-12202
IST	-12203
lenmesini	-12204
▁Pa	-12205
▁çır	-12206
Erdoğan	-12207
▁Tümgeneral	-12208
▁Milletvekil	-12209
TAR	-12210
İSİ	-12211
teme	-12212
▁kutu	-12213
▁fatura	-12214
▁muhafaza	-12215
▁merkezleri	-12216
▁Ulaş	-12217
▁boya	-12218
▁yıldızlı	-12219
çilik	-12220
▁Geli	-12221
▁evvel	-12222
▁Şehidin	-12223
▁havayolu	-12224
abilirsiniz	-12225
MET	-12226
▁başa	-12227
▁uçağının	-12228
▁diplomatik	-12229
Şimdi	-12230
▁kaydet	-12231
▁önemine	-12232
▁durdurdu	-12233
▁sahibinin	-12234
lali	-12235
lana	-12236
▁Hamdi	-12237
▁uyumlu	-12238
▁terörün	-12239
▁durumunu	-12240
▁sıkıştır	-12241
▁ker	-12242
▁akış	-12243
▁Raporu	-12244
▁iftira	-12245
▁onarım	-12246
▁yönelt	-12247
▁sürerek	-12248
▁seferini	-12249
San	-12250
TER	-12251
▁Meksika	-12252
▁yönetimine	-12253
hil	-12254
gılı	-12255
utma	-12256
▁Ford	-12257
▁dergi	-12258
▁namazını	-12259
▁takımı	-12260
▁aşağıya	-12261
▁görüşen	-12262
oğa	-12263
▁yılki	-12264
▁Romanya	-12265
▁kolları	-12266
▁muamele	-12267
▁kafasına	-12268
▁karıştığı	-12269
▁sonlandır	-12270
▁milletimizin	-12271
▁olumsuzluklara	-12272
cuk	-12273
▁türü	-12274
▁listede	-12275
▁okulun	-12276
▁yaralama	-12277
▁İspanyol	-12278
▁Osmangazi	-12279
▁nih	-12280
▁mecli	-12281
▁Kurtuluş	-12282
▁vereceğini	-12283
▁açıklamıştı	-12284
ima	-12285
▁formül	-12286
▁sunuldu	-12287
▁Müsteşarlığı	-12288
▁Hatır	-12289
▁radyo	-12290
▁davayı	-12291
▁tesisi	-12292
▁iştirak	-12293
▁yaklaşan	-12294
▁belirleyen	-12295
▁MU	-12296
▁Tekstil	-12297
▁gençlere	-12298
▁projesini	-12299
orma	-12300
sadı	-12301
demokr	-12302
▁gelsin	-12303
▁ibaret	-12304
▁otelin	-12305
▁dü	-12306
▁Nehri	-12307
▁CUMHUR	-12308
▁yakınında	-12309
▁kullanacak	-12310
tarma	-12311
▁rekab	-12312
uşu	-12313
▁anlamak	-12314
▁beraberinde	-12315
▁iP	-12316
▁yeten	-12317
).	-12318
▁KES	-12319
▁İne	-12320
ezidan	-12321
▁ihaleye	-12322
ilay	-12323
▁kıt	-12324
▁malı	-12325
▁yapalım	-12326
▁fiyatlarındaki	-12327
▁konulu	-12328
▁tavr	-12329
eğinde	-12330
▁tanker	-12331
▁cezasını	-12332
98	-12333
yüzde	-12334
▁edilir	-12335
▁kapasite	-12336
▁ailesiyle	-12337
SİZ	-12338
ole	-12339
Seç	-12340
▁Dönüş	-12341
▁Projenin	-12342
▁konudaki	-12343
▁pazarında	-12344
▁sahiplerinin	-12345
▁yaratan	-12346
▁arkadaşlarıyla	-12347
odos	-12348
▁GÜL	-12349
beral	-12350
▁infilak	-12351
▁tasfiye	-12352
▁konuşmasını	-12353
▁Esra	-12354
▁Takv	-12355
▁soruyu	-12356
▁iyileştir	-12357
▁HER	-12358
tınız	-12359
▁misyon	-12360
▁Örgütün	-12361
▁Rüzgarın	-12362
▁lanet	-12363
▁çalan	-12364
▁olduğunda	-12365
▁hastanenin	-12366
jen	-12367
▁yıp	-12368
▁husum	-12369
▁Sabiha	-12370
▁aileye	-12371
▁Kavşağı	-12372
▁görüldüğü	-12373
▁MGK	-12374
▁Nam	-12375
▁boyn	-12376
▁aktiv	-12377
▁isteme	-12378
edim	-12379
▁İfade	-12380
▁karşılandı	-12381
▁beklem	-12382
▁düşecek	-12383
▁hükmetti	-12384
▁Dolmabahçe	-12385
▁değiştirdi	-12386
arlık	-12387
▁yönden	-12388
▁menfaat	-12389
▁kalkınma	-12390
▁memurları	-12391
▁Tic	-12392
▁Melih	-12393
▁gelecekte	-12394
▁hedefleri	-12395
▁Fevzi	-12396
▁kapak	-12397
▁kavgası	-12398
▁Vatandaşların	-12399
ramv	-12400
▁KOR	-12401
▁LİR	-12402
▁Ülk	-12403
▁intern	-12404
▁bölümünün	-12405
kinin	-12406
▁ayni	-12407
▁koya	-12408
▁bilgisine	-12409
▁yapmasını	-12410
CÜ	-12411
▁albay	-12412
▁kendimi	-12413
▁satıldı	-12414
▁çıkmadı	-12415
▁binasının	-12416
ırlar	-12417
▁domat	-12418
▁netleş	-12419
▁sokaklara	-12420
▁kaybetmesi	-12421
▁söndürüldü	-12422
▁Sta	-12423
▁rolü	-12424
▁konsept	-12425
▁yanından	-12426
▁İlişkiler	-12427
▁yerlerinden	-12428
Hiç	-12429
ÜYOR	-12430
▁önü	-12431
▁Pren	-12432
▁Beylik	-12433
▁insana	-12434
▁Süreyya	-12435
▁hareketi	-12436
▁mahallede	-12437
▁Ele	-12438
▁Sık	-12439
▁Milyon	-12440
▁gelirleri	-12441
▁Menkul	-12442
▁Fotoğraf	-12443
▁Kit	-12444
distan	-12445
mettin	-12446
▁Turhan	-12447
▁cerrah	-12448
▁Bununla	-12449
▁durumlarda	-12450
▁yöneticilerinin	-12451
şap	-12452
ceğimiz	-12453
▁tehdidi	-12454
▁Nüf	-12455
▁Barajı	-12456
▁intikal	-12457
▁Ambul	-12458
▁Suruç	-12459
▁Vedat	-12460
▁kahve	-12461
▁koruy	-12462
▁devral	-12463
▁açma	-12464
▁vermeyen	-12465
▁ÖR	-12466
▁duv	-12467
döken	-12468
▁Bütçe	-12469
▁tokat	-12470
▁hektar	-12471
▁Rekabet	-12472
▁babasını	-12473
▁bankalara	-12474
▁fiyatının	-12475
▁maddesinin	-12476
▁yaşta	-12477
▁şaşırt	-12478
▁denizde	-12479
arız	-12480
▁aşı	-12481
liğimiz	-12482
▁belediy	-12483
▁Cün	-12484
lunun	-12485
▁hadisesi	-12486
▁kule	-12487
pazarı	-12488
▁refah	-12489
▁yumuş	-12490
▁topladı	-12491
▁yılbaşı	-12492
▁ihtiyaçlarını	-12493
Bar	-12494
▁Part	-12495
▁Ersin	-12496
▁Keşke	-12497
▁büyümeyi	-12498
▁açıklamasını	-12499
▁1.4	-12500
▁Git	-12501
▁karı	-12502
▁2005'	-12503
▁Altay	-12504
▁DESTEK	-12505
▁versin	-12506
▁dönüyor	-12507
▁diktatör	-12508
▁Hakimliği	-12509
▁verilemeyecek	-12510
NET	-12511
ebi	-12512
ulusi	-12513
▁iptali	-12514
▁dosyası	-12515
▁hastanın	-12516
▁YAZ	-12517
▁medyası	-12518
▁ülkemize	-12519
▁edebilecek	-12520
▁1.6	-12521
▁ayıp	-12522
muşlar	-12523
▁netice	-12524
▁ödemesi	-12525
▁tehlikesinin	-12526
oter	-12527
▁Dava	-12528
▁yanda	-12529
▁görüşmek	-12530
▁konuşmalar	-12531
▁Dos	-12532
▁tutmak	-12533
ılabilecek	-12534
▁bilgilerin	-12535
▁Ec	-12536
▁harç	-12537
▁desteğini	-12538
▁sıkıntısı	-12539
üzün	-12540
▁yut	-12541
▁Eşim	-12542
▁Karş	-12543
▁manip	-12544
okteyli	-12545
▁Tarsus	-12546
▁Eskiden	-12547
▁hepsini	-12548
▁oldular	-12549
▁ilgilen	-12550
▁İT	-12551
▁açıp	-12552
▁bakmak	-12553
▁özelleştirme	-12554
biy	-12555
▁RTÜK	-12556
▁parma	-12557
▁Yakası	-12558
▁ayından	-12559
▁inceledi	-12560
▁sokaklarda	-12561
▁edileceğini	-12562
▁mücadelenin	-12563
▁ilgilendiren	-12564
23	-12565
ACAĞ	-12566
dalı	-12567
▁çare	-12568
▁gitmeye	-12569
▁karşıtı	-12570
▁yolunun	-12571
▁yöneten	-12572
▁ekonomide	-12573
▁kaydedilen	-12574
▁araştırmalar	-12575
VEN	-12576
ırda	-12577
▁Tel	-12578
▁kaş	-12579
▁dehşet	-12580
▁edilebilir	-12581
Ek	-12582
tic	-12583
▁YOL	-12584
▁müze	-12585
▁alabilecek	-12586
▁fit	-12587
▁kısmen	-12588
▁istemiyorum	-12589
▁aldılar	-12590
▁karşılaştır	-12591
ğıt	-12592
▁ret	-12593
▁Kiraz	-12594
▁çekil	-12595
▁esnada	-12596
▁çağdaş	-12597
▁takviye	-12598
▁şartlar	-12599
▁taşınmaz	-12600
▁muhalefetin	-12601
üsüne	-12602
▁İskenderun	-12603
▁Vural	-12604
aristan	-12605
▁soruyor	-12606
▁saldıran	-12607
▁teknolojik	-12608
▁görüşmelerde	-12609
▁helikopterle	-12610
mil	-12611
berg	-12612
▁okum	-12613
▁tapu	-12614
▁aralı	-12615
▁Hulusi	-12616
▁riskli	-12617
▁binasında	-12618
ecan	-12619
otel	-12620
tirken	-12621
▁kargo	-12622
▁değişimi	-12623
▁perşembe	-12624
▁dayanışma	-12625
▁kapsamına	-12626
▁UN	-12627
▁lak	-12628
▁ihlali	-12629
▁görmeye	-12630
▁istemez	-12631
▁korkusu	-12632
▁na	-12633
danın	-12634
▁1000	-12635
▁TUTUK	-12636
▁tatile	-12637
▁olaylara	-12638
▁ortamında	-12639
KB	-12640
▁atma	-12641
▁gezi	-12642
▁ünit	-12643
▁benzet	-12644
▁görüle	-12645
▁profesör	-12646
▁maddeleri	-12647
▁operasyona	-12648
▁edilmesinin	-12649
umuza	-12650
▁Bosna	-12651
▁öldürme	-12652
▁sağlanan	-12653
▁güvenilir	-12654
▁gözaltında	-12655
▁Nişan	-12656
▁ep	-12657
▁damg	-12658
▁laik	-12659
▁durumuna	-12660
İzmir	-12661
▁meçhul	-12662
▁aileler	-12663
▁Çalışkan	-12664
28	-12665
▁bez	-12666
oksit	-12667
▁düzeni	-12668
▁kadarı	-12669
▁yıldırım	-12670
▁parçaları	-12671
▁bilgilerini	-12672
▁had	-12673
▁sonuçlarına	-12674
▁ero	-12675
▁kaçtığı	-12676
▁edici	-12677
▁ötürü	-12678
▁reddet	-12679
▁mektubu	-12680
▁dışından	-12681
▁gazetenin	-12682
masız	-12683
osmanpaşa	-12684
▁öncesine	-12685
▁dünyasında	-12686
▁faili	-12687
CA	-12688
▁Yaman	-12689
▁yerler	-12690
▁takılan	-12691
▁İkincisi	-12692
▁hazırlığı	-12693
alez	-12694
▁TAL	-12695
limiz	-12696
gunluk	-12697
▁temyiz	-12698
▁artırarak	-12699
▁gelmesini	-12700
▁kazandığı	-12701
▁görüntülendi	-12702
▁MARM	-12703
ayısal	-12704
▁Konuk	-12705
▁destekleyen	-12706
▁Eh	-12707
▁Tahir	-12708
▁çatısı	-12709
▁dershane	-12710
▁sorusunu	-12711
▁taleplerini	-12712
▁Hastalıkları	-12713
▁atv	-12714
vekil	-12715
▁bırakma	-12716
▁arkasına	-12717
▁ailelerin	-12718
▁sürücüsünün	-12719
DENİZ	-12720
▁Uzak	-12721
▁bağlam	-12722
▁çıktık	-12723
▁yıkıldı	-12724
▁aralıksız	-12725
▁Bis	-12726
▁suçtan	-12727
▁sorununun	-12728
▁Uyuşturucu	-12729
RE	-12730
▁(7	-12731
edin	-12732
▁Binbaşı	-12733
▁tersine	-12734
Doğ	-12735
cesi	-12736
▁BEK	-12737
▁bulur	-12738
▁dokuz	-12739
▁kulis	-12740
▁dönüşü	-12741
▁sordum	-12742
amızın	-12743
▁çekip	-12744
▁davaya	-12745
ebileceği	-12746
▁eleştiren	-12747
▁evlerinin	-12748
tuğ	-12749
▁TR	-12750
itler	-12751
▁sars	-12752
▁Emrah	-12753
▁Özkök	-12754
▁üyelik	-12755
▁aracını	-12756
▁oluşacak	-12757
▁yaptıktan	-12758
▁ücr	-12759
▁Belediy	-12760
▁işareti	-12761
▁bazılarının	-12762
▁Hızlı	-12763
▁etmeden	-12764
▁geleceğe	-12765
▁üretiminin	-12766
ANS	-12767
▁albüm	-12768
▁yerinin	-12769
▁alıyoruz	-12770
▁faaliyeti	-12771
▁meslekten	-12772
▁kapatılması	-12773
koç	-12774
▁bacak	-12775
▁gelmiyor	-12776
ümüzün	-12777
▁olmayacağını	-12778
▁kre	-12779
delen	-12780
▁Ereğli	-12781
▁aldığımız	-12782
▁gereğince	-12783
▁başlamıştı	-12784
▁şak	-12785
▁üretime	-12786
liğindeki	-12787
▁Habertürk	-12788
▁uygulamaları	-12789
▁11,	-12790
▁Muz	-12791
▁Yolcu	-12792
▁makul	-12793
▁patlamanın	-12794
▁Başm	-12795
▁Kamil	-12796
▁Sermaye	-12797
▁vb	-12798
ALARIN	-12799
▁Arama	-12800
▁Kuran	-12801
▁medyanın	-12802
▁sistemde	-12803
▁operasyonların	-12804
▁İşler	-12805
▁emr	-12806
LERİN	-12807
ğimizde	-12808
▁habere	-12809
▁duyarlı	-12810
▁gözleri	-12811
LEŞ	-12812
▁yanan	-12813
▁gelmek	-12814
▁ambar	-12815
▁bulgu	-12816
▁petrolün	-12817
▁kadınları	-12818
▁Beylikdüzü	-12819
▁geçirildiği	-12820
▁damat	-12821
eceğine	-12822
▁Balbay	-12823
▁Başkons	-12824
▁programda	-12825
Yüz	-12826
BAŞK	-12827
uhaf	-12828
ablus	-12829
▁Duran	-12830
▁mevzi	-12831
▁MERKEZ	-12832
▁yemeği	-12833
▁bırakın	-12834
▁alındığında	-12835
▁ağr	-12836
▁rüy	-12837
▁robot	-12838
▁oynadığı	-12839
▁doktorlar	-12840
pe	-12841
THY	-12842
cere	-12843
▁amaçla	-12844
zu	-12845
ğindeki	-12846
▁Akıncı	-12847
▁Hayati	-12848
▁lojman	-12849
▁gürültü	-12850
Oğ	-12851
▁köye	-12852
▁tavrı	-12853
▁Şeref	-12854
▁defter	-12855
▁Şiddet	-12856
▁faaliyetlerine	-12857
Dar	-12858
▁2-3	-12859
▁olama	-12860
▁internette	-12861
▁tamamlayan	-12862
ulma	-12863
ittin	-12864
rasya	-12865
▁çocuklarına	-12866
▁Ir	-12867
rübe	-12868
▁gib	-12869
▁İzzet	-12870
▁korsan	-12871
▁görmezden	-12872
▁ilçesinin	-12873
rid	-12874
beti	-12875
▁SER	-12876
▁köt	-12877
▁Öde	-12878
▁tıpkı	-12879
▁ailesini	-12880
▁zanlıların	-12881
▁EDİL	-12882
▁oluşum	-12883
▁darbesi	-12884
▁görüştük	-12885
▁Necmettin	-12886
▁Gaziosmanpaşa	-12887
grama	-12888
▁malzemeleri	-12889
▁kot	-12890
▁tela	-12891
▁sunum	-12892
▁sürat	-12893
▁Türkeş	-12894
▁şeyden	-12895
menistan	-12896
▁birtakım	-12897
oks	-12898
inti	-12899
unlu	-12900
ğday	-12901
ersek	-12902
iştir	-12903
▁oynuyor	-12904
▁vermeden	-12905
▁ruhsatsız	-12906
▁ihtiyacını	-12907
▁çıkartıldı	-12908
▁topu	-12909
▁zirve	-12910
▁arazide	-12911
▁odasına	-12912
▁kısmında	-12913
▁başlayarak	-12914
ain	-12915
▁18'	-12916
ALARI	-12917
▁Başar	-12918
▁Kamyon	-12919
▁adlandırılan	-12920
▁GÜNEY	-12921
▁söyler	-12922
▁Sayısal	-12923
▁rahatsızlığı	-12924
▁Edi	-12925
▁Alay	-12926
▁deme	-12927
▁içme	-12928
▁özerk	-12929
eteriner	-12930
asılat	-12931
▁Karakol	-12932
▁akciğer	-12933
▁işlediği	-12934
▁zorundayız	-12935
▁sıcaklığının	-12936
▁BATI	-12937
▁alacağını	-12938
masyon	-12939
▁Soner	-12940
▁şehri	-12941
▁Emniyeti	-12942
▁Kuy	-12943
▁panel	-12944
▁Çeşme	-12945
lanmaya	-12946
▁şirketlere	-12947
▁Fas	-12948
latma	-12949
▁Gedik	-12950
▁STK	-12951
▁toh	-12952
▁portföy	-12953
▁Aksi	-12954
▁tehlikeye	-12955
Bab	-12956
▁Halit	-12957
▁becer	-12958
▁ezber	-12959
▁yanaş	-12960
▁yeğeni	-12961
ulanıyor	-12962
▁Müşteri	-12963
▁nihayet	-12964
▁kaçarken	-12965
▁alınmasını	-12966
▁KOM	-12967
▁fet	-12968
▁üste	-12969
amıyorum	-12970
▁Gelecek	-12971
▁komiser	-12972
▁söndürme	-12973
▁Kağıthane	-12974
▁duyduğunu	-12975
▁konuşuluyor	-12976
▁OK	-12977
▁Gec	-12978
▁Bilg	-12979
iliyet	-12980
▁Henüz	-12981
▁umudu	-12982
▁konten	-12983
▁kapılarını	-12984
▁kapatılacak	-12985
▁Akş	-12986
▁dene	-12987
iyette	-12988
▁Yurtdış	-12989
▁büyüklük	-12990
▁görüşmenin	-12991
▁tedavisinin	-12992
▁tamamlanmasının	-12993
TÜRK	-12994
▁UYARISI	-12995
▁Parlamentosu	-12996
▁içerisindeki	-12997
buki	-12998
▁Dernek	-12999
▁diyenler	-13000
çin	-13001
▁Cor	-13002
▁Bara	-13003
▁KARŞ	-13004
▁denen	-13005
▁bakımda	-13006
▁kazanıyor	-13007
▁14'	-13008
▁krip	-13009
▁Şark	-13010
▁Devleti	-13011
▁isminin	-13012
▁hepimizin	-13013
▁rekoru	-13014
▁Karşıyaka	-13015
▁patlamada	-13016
▁resepsiyon	-13017
▁hol	-13018
amızı	-13019
▁afet	-13020
mişler	-13021
▁Durak	-13022
▁tarzı	-13023
▁edelim	-13024
▁tahliy	-13025
▁kavuştu	-13026
▁ülkelerinden	-13027
▁GAZ	-13028
etkik	-13029
▁kelep	-13030
▁ihalesi	-13031
iyeye	-13032
▁Haberal	-13033
▁başladım	-13034
▁kullanmaya	-13035
zda	-13036
▁GÖZAL	-13037
▁kasab	-13038
▁kente	-13039
▁bürokras	-13040
▁hayali	-13041
▁kararlılıkla	-13042
▁OT	-13043
tayı	-13044
dince	-13045
▁Garip	-13046
▁kaset	-13047
▁fezlek	-13048
▁mesajını	-13049
▁EGE	-13050
▁Savcılı	-13051
CU	-13052
meydan	-13053
▁sebeple	-13054
▁çıkaracak	-13055
▁ifadelerinin	-13056
şey	-13057
▁Yağmur	-13058
▁bölgeyi	-13059
▁varlığını	-13060
▁şant	-13061
▁bozdu	-13062
▁Şak	-13063
▁Bazen	-13064
▁yandaş	-13065
▁ileride	-13066
▁çiğ	-13067
▁GÖRÜN	-13068
▁Kampan	-13069
▁dışarıya	-13070
▁sa	-13071
liydi	-13072
senin	-13073
▁Tamam	-13074
▁güldür	-13075
▁saygın	-13076
▁sızdır	-13077
▁Por	-13078
▁mekân	-13079
Pro	-13080
YLE	-13081
üzük	-13082
▁ASK	-13083
▁İKİ	-13084
▁List	-13085
▁mıydı	-13086
▁Modern	-13087
▁Sağlığı	-13088
▁açılışı	-13089
▁veriler	-13090
▁merkezde	-13091
▁ötesinde	-13092
▁ihtiyacımız	-13093
▁karşılığını	-13094
▁Gi	-13095
lemi	-13096
leyin	-13097
▁Tuna	-13098
luğunun	-13099
▁Bektaş	-13100
▁içerikli	-13101
▁planları	-13102
▁yükselişle	-13103
▁istemiyoruz	-13104
▁Süreci	-13105
▁bakanlar	-13106
▁faaliyete	-13107
▁okullarda	-13108
Dünya	-13109
▁2006	-13110
▁Aslı	-13111
65	-13112
▁And	-13113
▁Jet	-13114
ülten	-13115
▁Danim	-13116
▁şahısların	-13117
▁kaldırılırken	-13118
▁coşk	-13119
▁YATIR	-13120
▁Nöbetçi	-13121
▁taşındı	-13122
▁Çevredeki	-13123
BA	-13124
uf	-13125
▁filan	-13126
▁değilse	-13127
İç	-13128
kırım	-13129
▁Bahar	-13130
▁Özbek	-13131
tığımızda	-13132
▁haberdar	-13133
▁aralıklarla	-13134
▁SEÇ	-13135
▁kef	-13136
▁günkü	-13137
▁vapur	-13138
▁Numara	-13139
▁manzar	-13140
▁yasama	-13141
▁şüpheliden	-13142
ise	-13143
isk	-13144
▁süper	-13145
▁borçlu	-13146
▁sabahı	-13147
▁adımları	-13148
▁gerekçesi	-13149
ates	-13150
▁3-4	-13151
▁üzül	-13152
cağının	-13153
▁Kendisi	-13154
▁Standar	-13155
▁Ermenistan	-13156
▁hedefleyen	-13157
ahu	-13158
▁KO	-13159
▁Avea	-13160
▁kaos	-13161
▁Halen	-13162
▁Selin	-13163
flasyon	-13164
▁Sincan	-13165
▁rakamları	-13166
▁Ta	-13167
▁ÖTV	-13168
▁Tren	-13169
▁savr	-13170
▁izlemek	-13171
▁ÜZERİNE	-13172
▁numaraları	-13173
dit	-13174
affer	-13175
▁Hattı	-13176
miyoruz	-13177
mıyoruz	-13178
▁termin	-13179
▁kalarak	-13180
▁Valili	-13181
▁sırala	-13182
▁alamayan	-13183
▁sınırına	-13184
▁kili	-13185
▁Harun	-13186
▁Hilmi	-13187
▁ekibinin	-13188
ayn	-13189
endisi	-13190
▁çekir	-13191
▁Durmuş	-13192
▁tesadüf	-13193
".	-13194
▁lüt	-13195
▁Ölen	-13196
▁bahane	-13197
▁köpeği	-13198
imet	-13199
izme	-13200
▁ecz	-13201
▁sular	-13202
▁İrfan	-13203
▁Tüneli	-13204
▁eleştirdi	-13205
▁gerekirse	-13206
▁pır	-13207
çileri	-13208
▁Fazıl	-13209
▁bizler	-13210
▁müttefik	-13211
DOĞU	-13212
▁solu	-13213
▁Hamza	-13214
▁Kuvvetler	-13215
▁tazminatı	-13216
▁müdahaleye	-13217
▁oluşturmak	-13218
BP	-13219
▁abi	-13220
▁2001	-13221
▁dünyaca	-13222
▁tarafta	-13223
▁yurtiçi	-13224
▁casusluk	-13225
▁şartlarda	-13226
▁alındıktan	-13227
▁kendisiyle	-13228
▁seviyesinin	-13229
▁DARB	-13230
▁tasla	-13231
labilir	-13232
▁Zengin	-13233
▁olacağına	-13234
▁2005	-13235
▁Ebru	-13236
ecektir	-13237
▁duyuru	-13238
▁çoktan	-13239
Tar	-13240
ekşi	-13241
▁jet	-13242
▁köyüne	-13243
▁ocağında	-13244
yap	-13245
▁12,	-13246
▁azın	-13247
▁inşaatı	-13248
▁alanlarında	-13249
Bay	-13250
▁günah	-13251
▁online	-13252
ajı	-13253
ganın	-13254
▁göğüs	-13255
▁Çıkan	-13256
▁olanlara	-13257
▁Büyükçekmece	-13258
kot	-13259
taşı	-13260
▁ORTA	-13261
▁odada	-13262
▁yeğen	-13263
▁eklendi	-13264
▁şiddete	-13265
▁Ağbal	-13266
▁keskin	-13267
▁MARMARA	-13268
▁düşünün	-13269
▁kaçınılmaz	-13270
▁yatırımların	-13271
şeti	-13272
▁Zar	-13273
▁Lüks	-13274
▁sabık	-13275
▁köprünün	-13276
lli	-13277
▁Biliyor	-13278
▁oyuncak	-13279
▁bakımdan	-13280
▁sandalye	-13281
▁sularında	-13282
▁dib	-13283
erler	-13284
▁Sırrı	-13285
▁krize	-13286
lıktaki	-13287
▁harcan	-13288
▁edeceğim	-13289
▁borsa	-13290
▁danışmanlık	-13291
▁gözük	-13292
▁gülüm	-13293
▁yaşını	-13294
▁duyulan	-13295
▁evlendi	-13296
▁gitmesi	-13297
lerimizle	-13298
▁ertelendi	-13299
▁milyonluk	-13300
▁çıkartılan	-13301
yık	-13302
▁müs	-13303
▁hızı	-13304
lettin	-13305
▁devamı	-13306
▁yumurt	-13307
▁artıran	-13308
▁ilçeleri	-13309
▁olunması	-13310
▁seviyorum	-13311
▁paylaştığı	-13312
▁Rektör	-13313
▁güzellik	-13314
NE	-13315
▁ÖZEL	-13316
▁mühür	-13317
▁Büyükekşi	-13318
Mu	-13319
▁amac	-13320
▁iğ	-13321
▁Maç	-13322
▁geçim	-13323
▁tezgah	-13324
▁kılınan	-13325
▁Başakşehir	-13326
▁özelleştir	-13327
▁sorunlarını	-13328
▁uygulanması	-13329
▁muc	-13330
▁radar	-13331
▁ödeye	-13332
▁düşünür	-13333
▁je	-13334
▁sta	-13335
▁İETT	-13336
▁tıbbi	-13337
▁bilmeyen	-13338
▁açılışını	-13339
▁şö	-13340
ahan	-13341
lemeyen	-13342
▁kimler	-13343
▁görünen	-13344
▁hizmetler	-13345
rol	-13346
▁MES	-13347
▁sosy	-13348
▁dinlen	-13349
▁AKDENİZ	-13350
▁kimseyi	-13351
▁verilere	-13352
▁Külliyesi	-13353
▁kullandığını	-13354
▁aksam	-13355
▁bırakmak	-13356
▁cezayı	-13357
▁tebliğ	-13358
▁ars	-13359
▁uğrat	-13360
▁atmaya	-13361
▁servet	-13362
▁kırıldı	-13363
▁tedaviye	-13364
kut	-13365
tara	-13366
▁ÜLK	-13367
▁İdil	-13368
▁suçunu	-13369
nel	-13370
elan	-13371
stri	-13372
▁SAN	-13373
lilere	-13374
▁soktu	-13375
▁bıçağı	-13376
▁Kandilli	-13377
▁doktorların	-13378
▁Küb	-13379
zaman	-13380
▁sorununu	-13381
▁MÜSİAD	-13382
▁bulunu	-13383
▁gökgür	-13384
▁sef	-13385
▁bankac	-13386
▁gereğini	-13387
▁toplayan	-13388
adişah	-13389
▁teyit	-13390
ladılar	-13391
▁kutlamalar	-13392
▁trav	-13393
memiştir	-13394
▁Karataş	-13395
layacağını	-13396
▁sabo	-13397
▁Divan	-13398
▁ziyade	-13399
leyeceği	-13400
▁kurumun	-13401
▁Bayrampaşa	-13402
▁görüntülerini	-13403
▁Ilı	-13404
▁yıldızı	-13405
IMIZ	-13406
laşması	-13407
▁ödemek	-13408
▁taahhüt	-13409
▁HABERLER	-13410
▁olaylarda	-13411
ULDU	-13412
▁14.	-13413
▁fındık	-13414
▁kamuya	-13415
▁projelerin	-13416
sche	-13417
▁muv	-13418
▁500'	-13419
▁popüler	-13420
▁Herkesin	-13421
▁inanıyoruz	-13422
▁gökgürültülü	-13423
▁Muhtar	-13424
▁sulama	-13425
▁detaylar	-13426
Cumhurbaşkanı	-13427
▁gerçekleştiği	-13428
INDAN	-13429
▁ekme	-13430
▁harf	-13431
▁Sadık	-13432
▁terfi	-13433
▁öncülü	-13434
▁maddenin	-13435
Teşekkürler	-13436
▁başladılar	-13437
▁karşılamak	-13438
▁AYM	-13439
▁Tekli	-13440
alarımız	-13441
▁silahlar	-13442
▁bahçesine	-13443
▁Feh	-13444
Burada	-13445
▁fazlası	-13446
▁yaralılar	-13447
▁öngörülen	-13448
77	-13449
▁Sef	-13450
▁POLİS	-13451
▁izleme	-13452
▁kalmak	-13453
▁Avrasya	-13454
▁güvence	-13455
işare	-13456
▁Çiller	-13457
▁görmüyor	-13458
▁ameliyata	-13459
▁sürdürülüyor	-13460
tum	-13461
▁Büy	-13462
▁Pilot	-13463
▁çamaş	-13464
▁kaptır	-13465
▁okulların	-13466
▁yöntemiyle	-13467
▁cezaevinden	-13468
▁Müdürlüğünce	-13469
Bana	-13470
▁Bağlar	-13471
▁tablet	-13472
▁alınmak	-13473
▁rakamın	-13474
▁anlamında	-13475
▁sokakları	-13476
abor	-13477
▁karın	-13478
▁katledi	-13479
▁Ülkenin	-13480
▁dereceye	-13481
IS	-13482
UNU	-13483
▁Vey	-13484
▁Bakın	-13485
▁Saman	-13486
▁sözcüsü	-13487
▁Çocuklar	-13488
▁saldırılar	-13489
▁Gur	-13490
▁Sonunda	-13491
▁borçlarını	-13492
▁gazetesinde	-13493
bı	-13494
İMİ	-13495
▁Sim	-13496
▁şap	-13497
▁konusunu	-13498
▁Karayılan	-13499
▁trafiğine	-13500
irg	-13501
MASI	-13502
meme	-13503
▁Sizin	-13504
▁Soğuk	-13505
▁Köksal	-13506
▁Norveç	-13507
▁euroya	-13508
▁kavuştur	-13509
▁turu	-13510
▁Sıcak	-13511
▁garip	-13512
▁makale	-13513
▁manken	-13514
▁ürünün	-13515
--------	-13516
▁getiril	-13517
▁patlayı	-13518
▁kenarına	-13519
▁sağlığına	-13520
▁santimetre	-13521
▁itfa	-13522
▁mensub	-13523
▁Ondan	-13524
▁Uysal	-13525
▁yoksun	-13526
▁SICAKLIK	-13527
▁görüşünü	-13528
▁Tartışmanın	-13529
▁öyk	-13530
▁bence	-13531
▁deney	-13532
▁yaral	-13533
▁Açılış	-13534
▁kararda	-13535
▁Doğalgaz	-13536
▁açıklanacak	-13537
▁belirlemelere	-13538
▁yazdım	-13539
▁darbeye	-13540
▁Ece	-13541
▁İnf	-13542
▁çarş	-13543
▁maçı	-13544
▁Örnek	-13545
ulmasına	-13546
▁çik	-13547
▁Topu	-13548
▁bası	-13549
▁yollardan	-13550
▁çağrısında	-13551
OG	-13552
▁Mey	-13553
▁tad	-13554
▁fail	-13555
▁Şent	-13556
▁Gölcük	-13557
▁pazarına	-13558
▁büyükşehir	-13559
▁hazırlayan	-13560
▁yönetiminde	-13561
▁Okur	-13562
▁ümit	-13563
▁Akgün	-13564
▁Sanki	-13565
▁birikim	-13566
▁söyleniyor	-13567
▁yaşanabilecek	-13568
şa	-13569
▁sorar	-13570
▁servisi	-13571
▁yakalandığı	-13572
▁ons	-13573
ılınca	-13574
▁Bayar	-13575
emediği	-13576
▁Heyeti	-13577
▁Ziyaret	-13578
▁seviyesi	-13579
▁değerleri	-13580
▁kardeşinin	-13581
▁alınmasının	-13582
seler	-13583
▁zarf	-13584
▁talip	-13585
▁husumet	-13586
▁EY	-13587
▁Soru	-13588
▁almaz	-13589
▁nerde	-13590
▁güneybatı	-13591
daj	-13592
▁meg	-13593
▁karşıt	-13594
▁Havaliman	-13595
▁Kürtlerin	-13596
so	-13597
▁Evin	-13598
▁atam	-13599
▁pren	-13600
▁hafız	-13601
▁Ceyhan	-13602
▁kullandır	-13603
▁kemer	-13604
▁topluma	-13605
▁yargıya	-13606
▁değişiklikler	-13607
IA	-13608
▁Sark	-13609
▁otele	-13610
▁gelirse	-13611
▁talihsiz	-13612
lerimizden	-13613
▁karaciğer	-13614
▁125	-13615
▁Lig	-13616
dının	-13617
▁sarsın	-13618
▁kumanda	-13619
▁GÜNEYDOĞU	-13620
▁kazanacak	-13621
dıkça	-13622
▁Doğuş	-13623
▁üstlen	-13624
▁Aydoğan	-13625
▁fenalaş	-13626
▁söylenen	-13627
▁SMS	-13628
dunun	-13629
layalım	-13630
▁asılsız	-13631
▁tuttuğu	-13632
▁bıçaklayarak	-13633
ciliği	-13634
▁fakir	-13635
meydanı	-13636
▁Onlara	-13637
▁alanın	-13638
▁salonda	-13639
▁aracıyla	-13640
▁muhabirinin	-13641
üven	-13642
taraf	-13643
▁Meri	-13644
▁ster	-13645
▁kasım	-13646
ilemeyen	-13647
▁işçileri	-13648
▁Dayanışma	-13649
▁senetleri	-13650
▁ucu	-13651
▁rahatlıkla	-13652
▁neş	-13653
lıkların	-13654
▁endüstr	-13655
▁1990'	-13656
▁torun	-13657
▁TERÖRİST	-13658
▁devrilmesi	-13659
ingi	-13660
▁TAN	-13661
▁oturma	-13662
▁durumdan	-13663
▁değerinin	-13664
▁ihracatın	-13665
▁girişimini	-13666
▁rot	-13667
▁karşısındaki	-13668
▁kalıp	-13669
rasında	-13670
▁doküman	-13671
▁haritası	-13672
▁medeniyet	-13673
▁UZ	-13674
▁Oteli	-13675
▁binaya	-13676
▁sınava	-13677
▁artışın	-13678
▁kesintisiz	-13679
ulut	-13680
▁Onları	-13681
▁yönüne	-13682
▁Buradan	-13683
▁hemşire	-13684
▁müvekkil	-13685
▁düşünmüyor	-13686
cal	-13687
Beni	-13688
▁villa	-13689
▁erişim	-13690
▁evleri	-13691
▁vermeyi	-13692
▁atılacak	-13693
▁grubunun	-13694
▁Kemer	-13695
▁geçin	-13696
▁Ağabey	-13697
▁yü	-13698
▁2003	-13699
▁Yarı	-13700
▁Cüneyt	-13701
▁çıplak	-13702
▁duygusal	-13703
▁belirtilirken	-13704
▁Ki	-13705
▁reç	-13706
▁İDO	-13707
▁ağac	-13708
▁metal	-13709
▁Boyner	-13710
▁düşürül	-13711
▁hattının	-13712
▁açılışında	-13713
▁üretiminde	-13714
▁çalışmalarında	-13715
NG	-13716
İBİ	-13717
olis	-13718
▁Borç	-13719
▁espr	-13720
▁Kerem	-13721
▁Tarık	-13722
ılmaması	-13723
▁yapısal	-13724
▁aktarıldı	-13725
▁etkiliyor	-13726
▁fotoğraflarını	-13727
▁3-	-13728
baba	-13729
▁Polonya	-13730
alarındaki	-13731
▁sürdürülen	-13732
▁BO	-13733
▁cis	-13734
▁arıza	-13735
▁Adliye	-13736
▁baktım	-13737
▁hayatlarını	-13738
▁sakinleştir	-13739
▁AZ	-13740
▁Enver	-13741
▁Erken	-13742
▁sekret	-13743
▁düşmanı	-13744
▁havacılık	-13745
ograf	-13746
▁Naci	-13747
▁asılı	-13748
▁dostu	-13749
▁düşer	-13750
000	-13751
aza	-13752
emmel	-13753
▁2023'	-13754
▁tüken	-13755
▁liberal	-13756
▁toplama	-13757
lanmasının	-13758
▁cun	-13759
▁törene	-13760
▁ilkokul	-13761
▁şimdilik	-13762
▁çekilişte	-13763
api	-13764
▁sün	-13765
▁içerisine	-13766
▁dilekçesinde	-13767
eg	-13768
'',	-13769
▁Min	-13770
ılanıyor	-13771
▁BÖLGELER	-13772
44	-13773
Alman	-13774
▁çıkarsa	-13775
▁Yaralanan	-13776
▁piyasasında	-13777
▁ettiğim	-13778
▁şeyleri	-13779
▁imzaladı	-13780
▁Muhalefet	-13781
▁gösterildi	-13782
▁kaybederek	-13783
▁kapatan	-13784
danış	-13785
▁şişe	-13786
▁Köylü	-13787
▁Dersim	-13788
▁ağustos	-13789
▁ettikten	-13790
▁yerlerine	-13791
▁araştırmaya	-13792
85	-13793
UV	-13794
ymış	-13795
▁Yaşlı	-13796
temelen	-13797
Kon	-13798
SIZ	-13799
meniz	-13800
▁Veri	-13801
▁marj	-13802
▁işlev	-13803
▁muhtaç	-13804
▁askerleri	-13805
▁doğusunda	-13806
Mar	-13807
▁ahşap	-13808
▁kanunun	-13809
▁gençleri	-13810
▁çalışanlarının	-13811
vali	-13812
▁sul	-13813
yıldız	-13814
üsünde	-13815
▁DURUM	-13816
▁muayen	-13817
▁taşıya	-13818
ıtı	-13819
"...	-13820
▁bulut	-13821
▁İşlem	-13822
▁mercek	-13823
▁beklendi	-13824
▁lev	-13825
▁Profes	-13826
▁kurbanı	-13827
▁kullanılarak	-13828
26	-13829
LERE	-13830
▁Eve	-13831
▁Tec	-13832
▁cennet	-13833
▁satmak	-13834
▁sembol	-13835
ılmasıyla	-13836
▁kıyılarında	-13837
▁ic	-13838
biye	-13839
▁Prot	-13840
▁beklet	-13841
▁grupları	-13842
▁kurtulan	-13843
Bal	-13844
TEN	-13845
▁35'	-13846
▁ÇEK	-13847
▁peyn	-13848
▁radikal	-13849
▁seslendi	-13850
▁sorumluluğu	-13851
▁Evi	-13852
▁kesimi	-13853
▁Efendim	-13854
▁araçlara	-13855
▁tanıtımı	-13856
▁koordinasyon	-13857
tez	-13858
▁Yör	-13859
lemeyi	-13860
▁canım	-13861
▁anlaşmaya	-13862
▁bulduğunu	-13863
▁kardeşlik	-13864
▁"15	-13865
▁Uzan	-13866
▁öteki	-13867
▁kıyıları	-13868
▁planladığı	-13869
!.."	-13870
▁GÜVEN	-13871
▁cesedin	-13872
▁haberin	-13873
▁tamamının	-13874
not	-13875
▁Erciş	-13876
▁varken	-13877
▁entegre	-13878
▁negatif	-13879
▁Hisarcık	-13880
▁Muzaffer	-13881
▁anlaşmaz	-13882
▁ODTÜ	-13883
▁2003'	-13884
▁Ameliy	-13885
▁Sine	-13886
amiral	-13887
▁başara	-13888
▁yürüdü	-13889
▁önünden	-13890
▁Okmeydanı	-13891
▁beklerken	-13892
▁yürütüyor	-13893
je	-13894
DAR	-13895
Kan	-13896
Genel	-13897
▁İlaç	-13898
▁ederse	-13899
▁eliyle	-13900
▁rakamı	-13901
▁tecrübe	-13902
▁ortaklığı	-13903
▁jandarmaya	-13904
▁sisteminde	-13905
atepe	-13906
▁Suat	-13907
▁Müzik	-13908
▁devre	-13909
▁Gölbaşı	-13910
▁indirdi	-13911
▁sırasıyla	-13912
▁Hük	-13913
▁Yaşa	-13914
▁mezh	-13915
lamalı	-13916
▁Akçak	-13917
▁çuval	-13918
▁Macaristan	-13919
▁Yüzbaşı	-13920
▁araçlarla	-13921
anma	-13922
▁Koy	-13923
▁ibar	-13924
▁geçip	-13925
▁haksızlık	-13926
▁inanılmaz	-13927
▁geliştirilen	-13928
▁Ceb	-13929
▁mün	-13930
▁cumhurbaşkan	-13931
▁YAPTI	-13932
▁kaldım	-13933
▁balıkçı	-13934
▁bilerek	-13935
▁açıklamayı	-13936
ENDİ	-13937
▁Neş	-13938
▁TUR	-13939
▁Yürüt	-13940
▁oturup	-13941
▁adaylar	-13942
▁iddialı	-13943
▁oradaki	-13944
▁gazetede	-13945
▁toplumda	-13946
▁yasağının	-13947
ırız	-13948
▁Kos	-13949
▁SAH	-13950
▁SAĞ	-13951
linton	-13952
▁Hüsnü	-13953
▁Yemek	-13954
▁GÖRMEK	-13955
▁Sürekli	-13956
▁sevdiği	-13957
▁yerleştirilen	-13958
▁190	-13959
▁Nob	-13960
▁masa	-13961
▁Necati	-13962
▁alacağız	-13963
mele	-13964
▁rezil	-13965
▁saatlerine	-13966
ld	-13967
▁Vü	-13968
▁Bed	-13969
ademi	-13970
▁KADAR	-13971
▁Şükür	-13972
lisinin	-13973
▁grubunda	-13974
yıp	-13975
▁GSM	-13976
çeşme	-13977
▁Dalı	-13978
▁Kıdem	-13979
▁Gündüz	-13980
▁İslami	-13981
▁kınıyor	-13982
▁önemini	-13983
▁sonradan	-13984
▁Yazıcıoğlu	-13985
▁kapasitesi	-13986
DAKİ	-13987
▁kıran	-13988
silahlı	-13989
▁istediler	-13990
lattı	-13991
▁Arab	-13992
▁Ufuk	-13993
▁YATIRIM	-13994
▁ısır	-13995
▁demesi	-13996
▁yakala	-13997
▁Hastanede	-13998
▁17'	-13999
▁döşen	-14000
▁Çubuk	-14001
▁Takvim	-14002
▁Yasemin	-14003
no	-14004
lım	-14005
▁Ede	-14006
BAKAN	-14007
leşen	-14008
ğundan	-14009
▁yapın	-14010
▁Rektörü	-14011
▁bıçakladı	-14012
▁ekonomiyi	-14013
▁kalmayacak	-14014
▁...	-14015
▁Efe	-14016
mekle	-14017
tetik	-14018
▁Apart	-14019
▁Dönem	-14020
▁Denetim	-14021
▁cezaları	-14022
▁komutanı	-14023
▁iddialarını	-14024
36	-14025
▁id	-14026
▁kıza	-14027
▁usta	-14028
▁zamana	-14029
▁kazayla	-14030
▁Yıllardır	-14031
▁olmayacağı	-14032
asu	-14033
▁atıp	-14034
▁Kutlu	-14035
▁Melek	-14036
▁açmaya	-14037
▁gününü	-14038
▁Halbuki	-14039
▁Sarkozy	-14040
▁ısrarla	-14041
▁kimliğini	-14042
▁belirtirken	-14043
▁muy	-14044
▁yolla	-14045
▁ölümüyle	-14046
▁eksen	-14047
çilerin	-14048
▁yaratmak	-14049
▁alanındaki	-14050
IT	-14051
uru	-14052
culu	-14053
ılsın	-14054
meyerek	-14055
▁kavşak	-14056
▁başlayıp	-14057
▁hesabına	-14058
▁kaçırılan	-14059
▁kamuoyunun	-14060
▁yargılanmasına	-14061
▁cip	-14062
▁BANK	-14063
▁manev	-14064
latıyor	-14065
amıyoruz	-14066
▁General	-14067
▁İktidar	-14068
▁üçte	-14069
▁cinsi	-14070
▁Yalnız	-14071
▁zinciri	-14072
▁Değişiklik	-14073
▁Genellikle	-14074
tiniz	-14075
▁Durumu	-14076
▁Toyota	-14077
▁Ambulans	-14078
▁Kendisine	-14079
▁arkadaşını	-14080
▁Turgay	-14081
▁zamandır	-14082
▁iddialara	-14083
diyorum	-14084
▁Törene	-14085
▁kapatma	-14086
▁maddeler	-14087
larımızdan	-14088
▁Türklerin	-14089
▁Vah	-14090
▁ÇOC	-14091
maati	-14092
▁Kriz	-14093
müştür	-14094
▁Dumanlı	-14095
▁talebin	-14096
▁nezdinde	-14097
▁otobüsün	-14098
lamayacağını	-14099
ANLI	-14100
▁Aşk	-14101
▁HES	-14102
▁ihti	-14103
▁uzay	-14104
▁beste	-14105
layacağız	-14106
mos	-14107
▁CNN	-14108
zioğlu	-14109
▁Başbakanımız	-14110
▁Başkanlığına	-14111
amın	-14112
ebil	-14113
meyle	-14114
▁rica	-14115
▁odaklan	-14116
▁Alışveriş	-14117
▁bilgilendirme	-14118
▁görüşü	-14119
▁rezidan	-14120
▁projesinde	-14121
▁niteliğinde	-14122
GEB	-14123
Tak	-14124
kap	-14125
▁Tasar	-14126
▁Muhsin	-14127
▁geçtik	-14128
▁numaralar	-14129
GM	-14130
▁ÖĞ	-14131
▁ins	-14132
▁katılma	-14133
▁kenarındaki	-14134
▁Komutanlığına	-14135
96	-14136
ader	-14137
▁BAĞ	-14138
▁LPG	-14139
▁Aman	-14140
▁bilmem	-14141
▁rektör	-14142
▁ekiplerin	-14143
▁sesleniyor	-14144
▁sıkıntılar	-14145
27	-14146
▁anma	-14147
▁satıcı	-14148
▁oyuncusu	-14149
▁ürettiği	-14150
▁karşılıyor	-14151
▁durdurulması	-14152
agaj	-14153
ladi	-14154
▁14,	-14155
▁Santr	-14156
▁kader	-14157
▁hazırlığında	-14158
▁Medi	-14159
▁duyurusu	-14160
▁kaybetmiş	-14161
▁CUMHURBAŞK	-14162
▁Kayıt	-14163
▁ateşi	-14164
▁yönünden	-14165
▁anlatarak	-14166
▁ihtiyaçları	-14167
▁Türkmenistan	-14168
▁çevresindeki	-14169
▁aleyh	-14170
▁tekme	-14171
▁yapımında	-14172
▁Sultanahmet	-14173
▁Yeniş	-14174
▁Ürdün	-14175
▁tahrip	-14176
▁almasını	-14177
▁Fethullahçı	-14178
ırdı	-14179
▁koku	-14180
▁tramv	-14181
▁adresi	-14182
▁Gelelim	-14183
▁dalgalan	-14184
▁potansiyeli	-14185
dava	-14186
▁fırtın	-14187
▁nişanlı	-14188
▁gelişmelere	-14189
▁durumlarının	-14190
ardı	-14191
dedi	-14192
zede	-14193
▁170	-14194
▁zede	-14195
▁Marşı	-14196
▁görüp	-14197
▁dosyayı	-14198
▁annesini	-14199
▁muhabiri	-14200
97	-14201
▁Ra	-14202
▁RÜZ	-14203
▁Nüfus	-14204
▁köklü	-14205
▁oyunları	-14206
▁planlıyoruz	-14207
▁ETK	-14208
▁basan	-14209
▁Barack	-14210
▁Şehitler	-14211
▁engellemeye	-14212
▁yaralıların	-14213
ily	-14214
les	-14215
▁Um	-14216
▁HAZ	-14217
▁Kapı	-14218
▁anlata	-14219
▁girdik	-14220
▁kaldık	-14221
▁kasten	-14222
ulmasını	-14223
▁aramaya	-14224
▁Bağımsız	-14225
▁kurşunla	-14226
hem	-14227
lil	-14228
▁(25)	-14229
▁çile	-14230
▁Tosun	-14231
▁seyirci	-14232
EDAŞ	-14233
▁kavş	-14234
▁önerg	-14235
larımın	-14236
▁Arapça	-14237
▁akademik	-14238
▁ödenmesi	-14239
▁Unut	-14240
alığın	-14241
▁edilmek	-14242
amadığını	-14243
▁bildirilen	-14244
▁kapasiteli	-14245
oç	-14246
obi	-14247
orld	-14248
baros	-14249
▁girerken	-14250
▁komşuları	-14251
▁verdiğimiz	-14252
▁Emniyetteki	-14253
▁merkezindeki	-14254
ARET	-14255
siyas	-14256
ketbol	-14257
▁birimi	-14258
▁açılmış	-14259
▁bilişim	-14260
▁olacaktı	-14261
▁yargının	-14262
▁Şüpheliler	-14263
▁belirleyecek	-14264
▁II	-14265
acası	-14266
▁Ofisi	-14267
▁oturt	-14268
▁Clinton	-14269
▁müjdesi	-14270
▁imzalanan	-14271
▁sahtecilik	-14272
▁getirilecek	-14273
▁geçirilmesi	-14274
▁He	-14275
▁madal	-14276
▁odası	-14277
▁kayınp	-14278
▁şehirde	-14279
▁büyüklüğündeki	-14280
cim	-14281
idro	-14282
▁Reh	-14283
▁Viy	-14284
▁görsel	-14285
▁kocası	-14286
▁Bankanın	-14287
▁bulunmuş	-14288
▁yolcuların	-14289
üşş	-14290
etti	-14291
OSGEB	-14292
adası	-14293
▁suçlardan	-14294
▁Operasyonu	-14295
▁kaydederek	-14296
Mah	-14297
ifor	-14298
terek	-14299
▁Oper	-14300
▁örne	-14301
▁yetenek	-14302
▁döneminin	-14303
▁araçlarının	-14304
atın	-14305
▁bakıma	-14306
▁imzası	-14307
liğimizi	-14308
▁evlerin	-14309
▁nis	-14310
▁DEREC	-14311
▁sömür	-14312
pil	-14313
Şehit	-14314
luğuna	-14315
▁hesaba	-14316
▁sporcu	-14317
▁reddedildi	-14318
uhan	-14319
▁Avro	-14320
▁okumak	-14321
▁erteledi	-14322
▁Koordinasyon	-14323
yeti	-14324
▁Hisse	-14325
▁zanne	-14326
mayalım	-14327
▁GÖRÜNTÜ	-14328
▁göreceğiz	-14329
▁Psik	-14330
▁GÖRÜŞ	-14331
▁EDİLDİ	-14332
▁hortum	-14333
▁kenara	-14334
▁büyüyor	-14335
▁başlanan	-14336
▁yıldönüm	-14337
▁öğrenince	-14338
94	-14339
▁Maz	-14340
abilit	-14341
memişti	-14342
▁ayrıntılı	-14343
▁aktarılacak	-14344
▁çalışmalarda	-14345
1.	-14346
▁BOR	-14347
barek	-14348
undak	-14349
▁1980	-14350
▁PARTİ	-14351
▁kızım	-14352
▁Birbir	-14353
▁şebeke	-14354
▁sorgusu	-14355
▁Karabulut	-14356
▁tüfeğiyle	-14357
▁liki	-14358
Atatürk	-14359
▁dediğimiz	-14360
.5'	-14361
▁EM	-14362
▁lig	-14363
imizle	-14364
▁zararı	-14365
▁faydalı	-14366
▁firmasının	-14367
▁restorasyon	-14368
Bak	-14369
▁tarla	-14370
▁üzünt	-14371
▁gönderildiği	-14372
▁(30-50	-14373
▁geliştirme	-14374
araya	-14375
▁Ortaköy	-14376
▁çaresiz	-14377
▁teklifini	-14378
▁söyleyeyim	-14379
▁yağışların	-14380
▁RU	-14381
fedi	-14382
▁Esas	-14383
önetim	-14384
▁KARAR	-14385
▁atmış	-14386
▁isimlerinden	-14387
▁TİM	-14388
▁BULUN	-14389
▁feribot	-14390
▁başlangı	-14391
▁harekatı	-14392
▁çıkmasını	-14393
▁görüşlerini	-14394
▁boyun	-14395
▁Personel	-14396
▁değiştirmek	-14397
mazken	-14398
▁Duman	-14399
▁mıdır	-14400
▁oynat	-14401
▁sendi	-14402
▁Zincir	-14403
▁borçları	-14404
▁yatırıma	-14405
▁çarşamba	-14406
▁hedefimiz	-14407
▁olabiliyor	-14408
arsa	-14409
dıma	-14410
▁Tap	-14411
▁Yay	-14412
▁gündemi	-14413
▁pazarlık	-14414
▁ulaşması	-14415
▁sığınmacı	-14416
▁açıklamasına	-14417
37	-14418
▁imal	-14419
▁Meryem	-14420
▁onlarla	-14421
▁belgesel	-14422
▁kiralama	-14423
cele	-14424
▁Müsteşar	-14425
▁Koalisyon	-14426
▁hesapları	-14427
▁istatistik	-14428
▁olaylarının	-14429
▁Dis	-14430
▁Öner	-14431
▁Merve	-14432
▁Altında	-14433
▁dergisi	-14434
▁Geor	-14435
▁2004'	-14436
▁Valilik	-14437
▁şiddeti	-14438
▁saptandı	-14439
▁belirsizlik	-14440
▁planladıklarını	-14441
▁Havay	-14442
▁merakla	-14443
▁önerisi	-14444
▁düzenlemenin	-14445
▁gezen	-14446
▁arttığı	-14447
▁sanıklardan	-14448
▁uzaklıktaki	-14449
▁16'	-14450
▁VUR	-14451
▁afiş	-14452
▁maksadı	-14453
▁sürücülerin	-14454
-30	-14455
▁Kot	-14456
▁Yahu	-14457
▁Rasat	-14458
▁iadesi	-14459
▁maddesinde	-14460
SUN	-14461
Yaş	-14462
laştı	-14463
▁Kuru	-14464
▁linç	-14465
▁Nerede	-14466
ELERİYLE	-14467
meyeceği	-14468
▁istihda	-14469
22	-14470
▁AS	-14471
enni	-14472
▁Beh	-14473
▁soran	-14474
▁Reyhanlı	-14475
▁oturuyor	-14476
▁sonuçlanan	-14477
▁Tedavi	-14478
▁Karadağ	-14479
▁getirir	-14480
▁tarihin	-14481
▁yazılan	-14482
▁çekilmiş	-14483
▁pazarlama	-14484
▁çalışmayı	-14485
▁Eczacıbaşı	-14486
▁taşıdığını	-14487
▁yayınladığı	-14488
sor	-14489
▁biti	-14490
▁Kayıp	-14491
▁odaya	-14492
▁samim	-14493
▁kaçmak	-14494
▁Törende	-14495
▁solunum	-14496
▁bankalarının	-14497
▁Derya	-14498
▁edemez	-14499
ich	-14500
ağaç	-14501
ünist	-14502
▁Mumcu	-14503
▁eroin	-14504
▁meraklı	-14505
▁binaların	-14506
▁talebinin	-14507
▁başlanacak	-14508
MEY	-14509
ondu	-14510
kabir	-14511
▁eskiden	-14512
▁tatbikat	-14513
▁seçimlere	-14514
naz	-14515
▁doku	-14516
▁Yeter	-14517
▁cazip	-14518
▁rejimi	-14519
▁raporuna	-14520
▁deri	-14521
▁böbre	-14522
▁Demirci	-14523
▁getirip	-14524
▁uyandır	-14525
▁Arı	-14526
▁Hoş	-14527
▁Mür	-14528
▁Mevlana	-14529
▁basında	-14530
▁olmakla	-14531
▁turistler	-14532
▁günlerinde	-14533
rag	-14534
dına	-14535
▁kupon	-14536
▁RÜZGAR	-14537
▁Yukarı	-14538
▁caminin	-14539
▁niyetli	-14540
▁Pazarlama	-14541
▁mensuplarınca	-14542
Erg	-14543
özel	-14544
▁işgü	-14545
▁eylemler	-14546
ternational	-14547
amm	-14548
Ancak	-14549
ıklar	-14550
▁2004	-14551
▁Şöyle	-14552
▁alandaki	-14553
▁Kürdistan	-14554
▁isimlerden	-14555
-60	-14556
▁Du	-14557
▁155	-14558
▁dama	-14559
▁öncü	-14560
▁Hesap	-14561
▁Sibel	-14562
▁kayak	-14563
▁faizleri	-14564
▁Perakende	-14565
?...	-14566
▁Bro	-14567
▁SEV	-14568
▁SİL	-14569
donez	-14570
emizi	-14571
lekli	-14572
▁Koçak	-14573
▁bildiği	-14574
▁gözlendi	-14575
▁trafikte	-14576
▁adreslere	-14577
▁anlaşılan	-14578
▁büyükelçi	-14579
▁hayatında	-14580
▁burs	-14581
▁çırp	-14582
▁boşal	-14583
▁çevik	-14584
▁hikâye	-14585
▁mantık	-14586
▁sondaj	-14587
▁Kışanak	-14588
▁etmekte	-14589
▁müsaade	-14590
larımızda	-14591
▁yayınlandı	-14592
▁parlamenter	-14593
olata	-14594
onomik	-14595
▁tuhaf	-14596
Anayasa	-14597
▁dükkân	-14598
▁esecek	-14599
▁vermez	-14600
▁Kazayla	-14601
▁yıldönümü	-14602
▁haberlerin	-14603
▁belirlediği	-14604
▁tartışmaları	-14605
▁Teröristlerin	-14606
34	-14607
ack	-14608
ğunuz	-14609
▁Görüşme	-14610
▁mesafede	-14611
▁kaynaklar	-14612
eng	-14613
ebir	-14614
▁Gürk	-14615
▁Kuşadası	-14616
▁noktayı	-14617
▁başvurarak	-14618
▁parlamento	-14619
▁Sonuçta	-14620
▁Barbaros	-14621
▁kamyonun	-14622
▁DP	-14623
boğa	-14624
onald	-14625
ankaya	-14626
anımız	-14627
▁senet	-14628
▁Forumu	-14629
▁etmeyin	-14630
▁mağduru	-14631
▁Rı	-14632
▁Müft	-14633
düstri	-14634
▁hapsi	-14635
▁tutuldu	-14636
▁alanların	-14637
▁Kup	-14638
▁içe	-14639
lenir	-14640
▁Semih	-14641
▁parçalan	-14642
▁tartıştı	-14643
▁sanatçısı	-14644
▁mücadeleye	-14645
▁getirdiğini	-14646
Mİ	-14647
▁Ci	-14648
▁MEB	-14649
▁yorumu	-14650
▁beslenme	-14651
▁liderleri	-14652
▁gazetesine	-14653
RI	-14654
▁HAK	-14655
▁hev	-14656
ılırsa	-14657
▁Temiz	-14658
▁ciddiye	-14659
▁Kurtarma	-14660
▁tarafsız	-14661
▁yaptığım	-14662
▁yöntemle	-14663
▁arkadaşımız	-14664
▁kayıtlarını	-14665
▁tutuklanmıştı	-14666
UYOR	-14667
evre	-14668
ansever	-14669
▁takibi	-14670
▁tavsiy	-14671
▁Kuruluş	-14672
▁ulaşacak	-14673
▁kuzeyinde	-14674
▁alınmasına	-14675
▁kadros	-14676
▁Gazeteciler	-14677
▁şirketlerinden	-14678
erin	-14679
▁Umar	-14680
cıoğlu	-14681
▁yığın	-14682
▁merkezlerinde	-14683
▁metin	-14684
▁alanlara	-14685
▁hedeflerine	-14686
▁vatandaşlardan	-14687
şan	-14688
eyrek	-14689
▁Beyt	-14690
▁plaj	-14691
▁umur	-14692
lileri	-14693
▁karan	-14694
▁telaş	-14695
▁Çağrı	-14696
▁İnfaz	-14697
▁yaşaya	-14698
▁özetle	-14699
▁İnegöl	-14700
▁Kanunun	-14701
▁fabrikası	-14702
▁uygulamasına	-14703
▁Metr	-14704
▁verim	-14705
▁çabuk	-14706
▁KULLAN	-14707
▁barışı	-14708
▁Harekât	-14709
▁taraflı	-14710
▁ödülünü	-14711
▁enerjisi	-14712
▁uygulamanın	-14713
HDP	-14714
▁kuyru	-14715
▁tered	-14716
▁Kalkan	-14717
▁Tanrık	-14718
▁elbise	-14719
▁ülkesinde	-14720
Bölg	-14721
ciyi	-14722
▁Huzur	-14723
▁Lideri	-14724
▁SALDIRI	-14725
▁ilgisini	-14726
viş	-14727
▁Mc	-14728
▁mavi	-14729
▁İncir	-14730
▁Yüksekdağ	-14731
▁kuralları	-14732
▁Konferansı	-14733
▁yükü	-14734
▁poşet	-14735
▁Dikkat	-14736
▁çökert	-14737
▁yayınladı	-14738
▁mücadeleyi	-14739
▁müşterilerine	-14740
hone	-14741
▁beğ	-14742
▁Mari	-14743
▁Saraç	-14744
▁çekiş	-14745
▁kültürü	-14746
▁Danimarka	-14747
▁sistemiyle	-14748
▁söylediğini	-14749
▁DERECELERİYLE	-14750
▁SICAKLIKLARINI	-14751
Yak	-14752
kiş	-14753
taya	-14754
▁ÖNCE	-14755
▁bulup	-14756
▁çabası	-14757
▁Endonez	-14758
▁itirazı	-14759
lıklarını	-14760
▁Elektronik	-14761
▁değerlendirildi	-14762
Bil	-14763
besi	-14764
▁Yel	-14765
▁göv	-14766
▁zaf	-14767
▁erdir	-14768
▁filmin	-14769
▁onlardan	-14770
▁yollarda	-14771
▁verebilir	-14772
▁Sancaktepe	-14773
▁telefonunu	-14774
▁getirildiğini	-14775
falt	-14776
▁fena	-14777
ılmadan	-14778
▁efendim	-14779
▁kurarak	-14780
▁çevreye	-14781
▁ücretin	-14782
▁bölgelere	-14783
▁HARİTALARIN	-14784
▁arkasındaki	-14785
ümde	-14786
▁cil	-14787
▁ölümle	-14788
▁bankadan	-14789
▁Yarım	-14790
▁tıkan	-14791
▁Yıllık	-14792
▁kendin	-14793
▁kariyer	-14794
▁köylüler	-14795
▁ideolojik	-14796
▁Sap	-14797
istan	-14798
▁Keçi	-14799
▁feder	-14800
▁Hırist	-14801
▁çevrildi	-14802
▁incelendi	-14803
▁Zanlıların	-14804
▁bünyesindeki	-14805
anne	-14806
▁Belli	-14807
▁Neyse	-14808
▁yetin	-14809
▁dostluk	-14810
▁hastaneden	-14811
▁çıkacağını	-14812
▁laboratuvar	-14813
bus	-14814
▁Etkin	-14815
▁Güçlü	-14816
▁sorduk	-14817
▁inandır	-14818
▁bedelini	-14819
▁imzalandı	-14820
▁hastanelerde	-14821
▁soruşturmalar	-14822
▁YD	-14823
eride	-14824
▁Farklı	-14825
lamasını	-14826
▁beklemek	-14827
▁tepkiler	-14828
▁gelebilir	-14829
▁çıkarılacak	-14830
▁çalıştıkları	-14831
gh	-14832
?''	-14833
▁içerik	-14834
▁Olaydan	-14835
▁öğrenmek	-14836
32	-14837
inler	-14838
▁galeri	-14839
▁pazara	-14840
▁Abdülham	-14841
▁yapılanma	-14842
▁geldikleri	-14843
masa	-14844
▁13,	-14845
▁akım	-14846
▁Yıllar	-14847
▁haklarının	-14848
▁özürlü	-14849
▁Topkapı	-14850
▁tutarak	-14851
▁babasına	-14852
▁etkileyecek	-14853
▁DİY	-14854
▁1980'	-14855
▁dayak	-14856
▁kurmay	-14857
▁kışkır	-14858
▁beldesi	-14859
▁gözetim	-14860
▁arkadaşıyla	-14861
▁toplantının	-14862
▁TAŞ	-14863
▁DEĞİŞ	-14864
▁yıkım	-14865
▁Türkan	-14866
▁Özgecan	-14867
▁fiyatlarını	-14868
▁ürünlerinin	-14869
BU	-14870
remit	-14871
ormale	-14872
▁Kamuoy	-14873
▁Nevruz	-14874
▁Bilişim	-14875
▁duruşmasında	-14876
leks	-14877
▁tohum	-14878
▁asıllı	-14879
▁ramazan	-14880
▁Anıtkabir	-14881
▁kuzeybatı	-14882
ADAN	-14883
▁Bede	-14884
▁şair	-14885
mayarak	-14886
▁Lirası	-14887
▁genelde	-14888
▁programını	-14889
git	-14890
ELİK	-14891
▁obez	-14892
▁attığını	-14893
▁depremde	-14894
▁gelenler	-14895
▁anlatmaya	-14896
▁kaldırmaya	-14897
▁rezervasyon	-14898
▁uygulamasının	-14899
MAY	-14900
▁görgü	-14901
▁Şevket	-14902
▁harekât	-14903
▁keserek	-14904
▁cesedini	-14905
▁Poyraz	-14906
▁dostum	-14907
▁parasal	-14908
ino	-14909
▁rız	-14910
jektif	-14911
▁Aysel	-14912
▁piknik	-14913
▁duyunca	-14914
▁anlatmak	-14915
[...]
